const unsigned char model[] = {
  0x1c, 0x00, 0x00, 0x00, 0x54, 0x46, 0x4c, 0x33, 0x14, 0x00, 0x20, 0x00,
  0x1c, 0x00, 0x18, 0x00, 0x14, 0x00, 0x10, 0x00, 0x0c, 0x00, 0x00, 0x00,
  0x08, 0x00, 0x04, 0x00, 0x14, 0x00, 0x00, 0x00, 0x1c, 0x00, 0x00, 0x00,
  0x98, 0x00, 0x00, 0x00, 0xf0, 0x00, 0x00, 0x00, 0x70, 0x15, 0x00, 0x00,
  0x80, 0x15, 0x00, 0x00, 0x7c, 0x1b, 0x00, 0x00, 0x03, 0x00, 0x00, 0x00,
  0x01, 0x00, 0x00, 0x00, 0x10, 0x00, 0x00, 0x00, 0x00, 0x00, 0x0a, 0x00,
  0x10, 0x00, 0x0c, 0x00, 0x08, 0x00, 0x04, 0x00, 0x0a, 0x00, 0x00, 0x00,
  0x0c, 0x00, 0x00, 0x00, 0x1c, 0x00, 0x00, 0x00, 0x3c, 0x00, 0x00, 0x00,
  0x0f, 0x00, 0x00, 0x00, 0x73, 0x65, 0x72, 0x76, 0x69, 0x6e, 0x67, 0x5f,
  0x64, 0x65, 0x66, 0x61, 0x75, 0x6c, 0x74, 0x00, 0x01, 0x00, 0x00, 0x00,
  0x04, 0x00, 0x00, 0x00, 0x90, 0xff, 0xff, 0xff, 0x0a, 0x00, 0x00, 0x00,
  0x04, 0x00, 0x00, 0x00, 0x08, 0x00, 0x00, 0x00, 0x64, 0x65, 0x6e, 0x73,
  0x65, 0x5f, 0x31, 0x34, 0x00, 0x00, 0x00, 0x00, 0x01, 0x00, 0x00, 0x00,
  0x04, 0x00, 0x00, 0x00, 0x76, 0xea, 0xff, 0xff, 0x04, 0x00, 0x00, 0x00,
  0x0e, 0x00, 0x00, 0x00, 0x64, 0x65, 0x6e, 0x73, 0x65, 0x5f, 0x31, 0x32,
  0x5f, 0x69, 0x6e, 0x70, 0x75, 0x74, 0x00, 0x00, 0x02, 0x00, 0x00, 0x00,
  0x34, 0x00, 0x00, 0x00, 0x04, 0x00, 0x00, 0x00, 0xdc, 0xff, 0xff, 0xff,
  0x0d, 0x00, 0x00, 0x00, 0x04, 0x00, 0x00, 0x00, 0x13, 0x00, 0x00, 0x00,
  0x43, 0x4f, 0x4e, 0x56, 0x45, 0x52, 0x53, 0x49, 0x4f, 0x4e, 0x5f, 0x4d,
  0x45, 0x54, 0x41, 0x44, 0x41, 0x54, 0x41, 0x00, 0x08, 0x00, 0x0c, 0x00,
  0x08, 0x00, 0x04, 0x00, 0x08, 0x00, 0x00, 0x00, 0x0c, 0x00, 0x00, 0x00,
  0x04, 0x00, 0x00, 0x00, 0x13, 0x00, 0x00, 0x00, 0x6d, 0x69, 0x6e, 0x5f,
  0x72, 0x75, 0x6e, 0x74, 0x69, 0x6d, 0x65, 0x5f, 0x76, 0x65, 0x72, 0x73,
  0x69, 0x6f, 0x6e, 0x00, 0x0e, 0x00, 0x00, 0x00, 0x7c, 0x14, 0x00, 0x00,
  0x74, 0x14, 0x00, 0x00, 0x44, 0x14, 0x00, 0x00, 0xf8, 0x13, 0x00, 0x00,
  0x20, 0x13, 0x00, 0x00, 0x60, 0x0e, 0x00, 0x00, 0x98, 0x02, 0x00, 0x00,
  0xa8, 0x00, 0x00, 0x00, 0xa0, 0x00, 0x00, 0x00, 0x98, 0x00, 0x00, 0x00,
  0x90, 0x00, 0x00, 0x00, 0x88, 0x00, 0x00, 0x00, 0x68, 0x00, 0x00, 0x00,
  0x04, 0x00, 0x00, 0x00, 0x2a, 0xeb, 0xff, 0xff, 0x04, 0x00, 0x00, 0x00,
  0x54, 0x00, 0x00, 0x00, 0x0c, 0x00, 0x00, 0x00, 0x08, 0x00, 0x0e, 0x00,
  0x08, 0x00, 0x04, 0x00, 0x08, 0x00, 0x00, 0x00, 0x10, 0x00, 0x00, 0x00,
  0x24, 0x00, 0x00, 0x00, 0x00, 0x00, 0x06, 0x00, 0x08, 0x00, 0x04, 0x00,
  0x06, 0x00, 0x00, 0x00, 0x04, 0x00, 0x00, 0x00, 0x00, 0x00, 0x00, 0x00,
  0x00, 0x00, 0x0a, 0x00, 0x10, 0x00, 0x0c, 0x00, 0x08, 0x00, 0x04, 0x00,
  0x0a, 0x00, 0x00, 0x00, 0x02, 0x00, 0x00, 0x00, 0x02, 0x00, 0x00, 0x00,
  0x04, 0x00, 0x00, 0x00, 0x06, 0x00, 0x00, 0x00, 0x32, 0x2e, 0x31, 0x35,
  0x2e, 0x30, 0x00, 0x00, 0x8a, 0xeb, 0xff, 0xff, 0x04, 0x00, 0x00, 0x00,
  0x10, 0x00, 0x00, 0x00, 0x31, 0x2e, 0x35, 0x2e, 0x30, 0x00, 0x00, 0x00,
  0x00, 0x00, 0x00, 0x00, 0x00, 0x00, 0x00, 0x00, 0x5c, 0xe6, 0xff, 0xff,
  0x60, 0xe6, 0xff, 0xff, 0x64, 0xe6, 0xff, 0xff, 0x68, 0xe6, 0xff, 0xff,
  0xb6, 0xeb, 0xff, 0xff, 0x04, 0x00, 0x00, 0x00, 0xe0, 0x01, 0x00, 0x00,
  0xbe, 0xac, 0xbc, 0x3e, 0x2f, 0x7f, 0x10, 0xc0, 0x4c, 0x28, 0xa8, 0xbe,
  0x90, 0xc7, 0x77, 0xbe, 0xda, 0xb3, 0x91, 0xbe, 0x74, 0xe5, 0x3e, 0x3e,
  0x4c, 0xd3, 0xe9, 0xbf, 0x3c, 0xfb, 0xe1, 0x3e, 0xe8, 0x64, 0x86, 0xbe,
  0x2a, 0xc7, 0x3a, 0x3d, 0x75, 0xec, 0xe2, 0x3e, 0x38, 0x3f, 0xa3, 0xbf,
  0x98, 0x43, 0x6b, 0xbd, 0xbc, 0x09, 0xef, 0x3e, 0x0e, 0x44, 0x55, 0x3e,
  0x11, 0x38, 0x87, 0xc0, 0xc4, 0x21, 0xe0, 0xbe, 0xe1, 0x83, 0x41, 0xbf,
  0x67, 0xac, 0xe2, 0xbf, 0x3f, 0xc5, 0xe6, 0xbe, 0xa2, 0x4f, 0x04, 0xbe,
  0x57, 0xab, 0xff, 0xbe, 0xfe, 0x5a, 0x91, 0x3e, 0x7c, 0x38, 0x08, 0x3e,
  0xee, 0x5a, 0x57, 0xc0, 0xd8, 0xb0, 0x76, 0xbd, 0xec, 0x3a, 0xb1, 0x3d,
  0xf8, 0xea, 0xbf, 0xbe, 0x48, 0x2f, 0x7d, 0x3e, 0xf0, 0x42, 0x83, 0xbe,
  0x40, 0xb6, 0xc8, 0xbe, 0x40, 0x80, 0xde, 0x3b, 0x03, 0xbf, 0x1c, 0xc0,
  0x98, 0x5e, 0x33, 0xc0, 0x4c, 0xb1, 0x8f, 0xbe, 0xac, 0x8b, 0x1a, 0x3e,
  0x5e, 0xe6, 0x2e, 0xc0, 0x39, 0x02, 0x5d, 0xbd, 0x90, 0x98, 0x39, 0xbe,
  0x7c, 0xe2, 0x2f, 0x3e, 0xa6, 0x0c, 0xd7, 0x3e, 0x6b, 0xf0, 0xa8, 0xbe,
  0x70, 0x42, 0x17, 0xbd, 0xc0, 0x3c, 0x4d, 0x3d, 0x92, 0xaa, 0xdb, 0x3e,
  0x9c, 0x3d, 0xad, 0xbf, 0x46, 0x89, 0x78, 0xbf, 0x32, 0xef, 0x42, 0x3e,
  0xb1, 0x85, 0x2b, 0xbd, 0x24, 0xa1, 0x53, 0xbe, 0xb8, 0xd3, 0xa2, 0xbd,
  0xf8, 0xd0, 0x91, 0x3d, 0xb3, 0xc4, 0x5c, 0x3e, 0x8d, 0x53, 0xae, 0xbe,
  0xfe, 0x25, 0xad, 0xbf, 0x08, 0x70, 0xaa, 0xbe, 0x39, 0x97, 0xa5, 0xbf,
  0xba, 0xfa, 0xef, 0xbe, 0x00, 0xbf, 0x4a, 0x3b, 0xcf, 0x3c, 0xe3, 0xbe,
  0x7e, 0x9b, 0xe9, 0xbe, 0xb8, 0x75, 0x24, 0xc0, 0x7b, 0xf1, 0x90, 0xbe,
  0xe3, 0x48, 0x9a, 0x3e, 0xd4, 0xd6, 0xb5, 0x3e, 0xd4, 0x9c, 0xfa, 0xbd,
  0x3e, 0x14, 0x80, 0x3c, 0x14, 0x77, 0x18, 0xbd, 0xec, 0x59, 0x5c, 0xbe,
  0x7d, 0xf9, 0xd6, 0xbe, 0x7f, 0x52, 0x2d, 0xbe, 0x12, 0x87, 0xdb, 0xbf,
  0xa2, 0xf6, 0x88, 0xbe, 0x94, 0x03, 0xc7, 0x3e, 0x4e, 0x9a, 0x01, 0xbf,
  0xa2, 0xd9, 0x50, 0x3e, 0xd3, 0x61, 0x78, 0xbf, 0x6e, 0x3c, 0x75, 0xbf,
  0xa9, 0xd0, 0x5f, 0xbf, 0xd8, 0xb3, 0xd8, 0x3d, 0x60, 0x22, 0xc2, 0xbc,
  0x57, 0x14, 0x64, 0xc0, 0x6d, 0xb6, 0x7d, 0x3e, 0x34, 0x23, 0xaf, 0xbe,
  0xbe, 0x6b, 0x29, 0xbe, 0x26, 0xd2, 0xe4, 0x3e, 0x56, 0x6b, 0x11, 0xbf,
  0x10, 0xfe, 0xb6, 0x3e, 0x16, 0x9d, 0xea, 0x3e, 0x28, 0x91, 0x3b, 0xbe,
  0xff, 0xb1, 0x38, 0xc0, 0xea, 0x16, 0x58, 0xbf, 0x1e, 0x3d, 0x87, 0xbc,
  0x68, 0xd1, 0x1c, 0xbf, 0xfa, 0x40, 0x6f, 0xbe, 0x70, 0x79, 0xb9, 0x3e,
  0xec, 0xf6, 0x62, 0x3e, 0x61, 0x5d, 0x72, 0x3e, 0x7a, 0x60, 0x7b, 0x3e,
  0x6e, 0x06, 0x2a, 0xc0, 0x9f, 0x98, 0xe6, 0x3d, 0x50, 0xa1, 0x10, 0xbf,
  0xe8, 0xc6, 0x15, 0xbe, 0x6a, 0xbc, 0x71, 0xbe, 0xb3, 0xfe, 0x9b, 0xbe,
  0xd5, 0xb6, 0xc7, 0xbf, 0xc2, 0x6c, 0xba, 0x3e, 0x88, 0x66, 0xb3, 0xbf,
  0x98, 0xd3, 0x91, 0xc0, 0xf2, 0x45, 0xf9, 0x3e, 0xfb, 0xdd, 0x9b, 0xbe,
  0x68, 0xd1, 0x82, 0xbf, 0xca, 0x2b, 0xf1, 0x3e, 0xbf, 0x6d, 0xe3, 0xbe,
  0x21, 0xf3, 0x7c, 0xbf, 0x6d, 0xe7, 0x43, 0xbe, 0xfa, 0xba, 0x94, 0xbe,
  0x96, 0x74, 0x03, 0xbe, 0xe2, 0x2e, 0xe0, 0x3e, 0x2a, 0x42, 0xe7, 0x3e,
  0xa2, 0xed, 0xff, 0xff, 0x04, 0x00, 0x00, 0x00, 0xb8, 0x0b, 0x00, 0x00,
  0xcc, 0x76, 0x8d, 0x3d, 0x02, 0x92, 0x2f, 0x3e, 0x95, 0x43, 0x1d, 0x40,
  0xb4, 0x05, 0xe5, 0x3d, 0x4f, 0x26, 0x4e, 0x3f, 0x3c, 0x8d, 0xd8, 0x3f,
  0x93, 0x1f, 0x0e, 0x3e, 0xf6, 0x1b, 0x8b, 0xbe, 0x15, 0x2f, 0x28, 0xbe,
  0x6e, 0x0d, 0xb8, 0x3e, 0xe8, 0xe2, 0x15, 0x3e, 0xe2, 0xff, 0xc9, 0x3f,
  0x02, 0x53, 0xc5, 0xbd, 0x77, 0xd6, 0x01, 0x3d, 0x4a, 0xd2, 0x87, 0xbe,
  0xc8, 0xd9, 0xc4, 0x3d, 0x24, 0x97, 0x73, 0xbe, 0x90, 0x32, 0x63, 0xbf,
  0xaa, 0xe6, 0x34, 0xbe, 0x2f, 0x43, 0xd4, 0x3e, 0x76, 0x06, 0xa9, 0xbd,
  0x3a, 0xbc, 0x9c, 0xbf, 0x85, 0xea, 0x2f, 0xbe, 0xc8, 0x16, 0x98, 0xbe,
  0xde, 0x78, 0x4c, 0xbe, 0x46, 0x27, 0x8d, 0xbe, 0xfe, 0x9c, 0xc0, 0xbe,
  0x8e, 0x49, 0x78, 0xbe, 0x5c, 0xf3, 0xb3, 0xbd, 0xed, 0x97, 0x4c, 0x40,
  0x44, 0x1a, 0x53, 0x3f, 0x18, 0x01, 0x58, 0x3e, 0xbe, 0x05, 0x7b, 0x3f,
  0x1e, 0x56, 0x99, 0xbd, 0xd8, 0xcc, 0x54, 0x3d, 0x37, 0x90, 0x53, 0x40,
  0xac, 0xda, 0x12, 0xc0, 0xde, 0xfa, 0x55, 0x3e, 0xc8, 0x81, 0x18, 0xbd,
  0xe0, 0x9a, 0x57, 0x3e, 0xbc, 0x5e, 0x74, 0xbd, 0xbc, 0x43, 0x0c, 0x3f,
  0x39, 0x9a, 0x88, 0x3e, 0x3d, 0x97, 0x26, 0xbe, 0xdd, 0x13, 0x76, 0xbe,
  0x5c, 0x4a, 0x03, 0x3e, 0x42, 0xa6, 0x8a, 0xbe, 0xe0, 0xbf, 0x1e, 0x40,
  0xdb, 0xa4, 0x01, 0x40, 0x98, 0xcf, 0x97, 0x3e, 0x78, 0xd3, 0x03, 0x3d,
  0x72, 0xfa, 0xf9, 0xbd, 0x89, 0x07, 0xa0, 0xbf, 0x54, 0x7b, 0x8e, 0xbe,
  0x56, 0xe1, 0x47, 0xbf, 0x24, 0x93, 0x1e, 0x3f, 0x32, 0x30, 0xd5, 0x3e,
  0x88, 0xe3, 0x7a, 0xbe, 0xd6, 0xc9, 0x8a, 0x3e, 0x0e, 0xdb, 0x91, 0xbf,
  0x4c, 0xec, 0x27, 0xbe, 0x81, 0xe1, 0x56, 0xbf, 0xbc, 0xd4, 0x24, 0x3f,
  0x1a, 0x5f, 0x54, 0x3d, 0xf8, 0x4b, 0x73, 0x3e, 0x08, 0xa9, 0x2d, 0x3e,
  0xb0, 0x8a, 0x89, 0x3e, 0xdc, 0xeb, 0xf8, 0x3e, 0x7e, 0x57, 0x4d, 0xbe,
  0xe6, 0x02, 0x45, 0x3f, 0xb5, 0x7f, 0x65, 0xbe, 0xa8, 0x42, 0x81, 0x3f,
  0x00, 0x50, 0xb2, 0xbc, 0xa4, 0x7d, 0x79, 0x3e, 0x90, 0xb9, 0xfa, 0x3c,
  0x29, 0x80, 0x81, 0xbe, 0x88, 0x40, 0x8d, 0xbf, 0xb0, 0xc9, 0xef, 0xbc,
  0xc0, 0x6d, 0x55, 0x3e, 0xcd, 0x8f, 0xbe, 0xbf, 0xb9, 0xc8, 0x39, 0x3e,
  0xfc, 0x2e, 0xed, 0x3d, 0x6f, 0xa0, 0x8b, 0xbf, 0x94, 0x99, 0x7c, 0xbd,
  0x88, 0x1c, 0x7f, 0x3e, 0xaf, 0xa8, 0xb4, 0xbf, 0xf3, 0x9b, 0x8d, 0x3f,
  0x82, 0x69, 0xc3, 0x3e, 0x6c, 0xf3, 0x4a, 0x3e, 0x78, 0xe1, 0x4d, 0x3e,
  0x54, 0xb2, 0x4e, 0x3e, 0x6a, 0x85, 0x87, 0x3f, 0x7e, 0x94, 0xf4, 0x3e,
  0x80, 0xad, 0x75, 0xbb, 0x10, 0x5a, 0x8a, 0x3e, 0x28, 0x6e, 0xea, 0x3d,
  0xfa, 0x3a, 0x11, 0xbe, 0xbf, 0xac, 0x47, 0xbf, 0xaa, 0x63, 0xa4, 0xbf,
  0xf0, 0x5e, 0x12, 0x3d, 0x78, 0x71, 0x63, 0x3d, 0x00, 0xf8, 0xd9, 0x3b,
  0x15, 0xd7, 0xc2, 0x3e, 0x60, 0x6d, 0xce, 0xbc, 0xf8, 0x68, 0x2a, 0x3f,
  0x04, 0x4e, 0x83, 0xbf, 0xc3, 0xcc, 0x4a, 0x3e, 0x0f, 0x1b, 0x84, 0xbe,
  0xd4, 0xb7, 0x5e, 0xbe, 0x7b, 0xc3, 0xba, 0x3f, 0x2c, 0x63, 0x9c, 0xbd,
  0xc5, 0x5c, 0x6e, 0x3f, 0x7a, 0x1a, 0xe7, 0xbc, 0x01, 0xf9, 0xdf, 0xbd,
  0x60, 0xa8, 0x7a, 0xbc, 0xa0, 0x0d, 0x84, 0x3c, 0x3e, 0xba, 0x98, 0x3e,
  0xbd, 0x55, 0x02, 0x3f, 0x1e, 0x05, 0x90, 0x3e, 0xf8, 0x69, 0xc7, 0xbe,
  0x31, 0x33, 0xef, 0xbd, 0xbc, 0xd3, 0xd7, 0x3e, 0x80, 0xf5, 0x1d, 0x3b,
  0x9a, 0xd3, 0xbb, 0xbd, 0x08, 0x3d, 0x55, 0x3e, 0x6c, 0xdb, 0xc9, 0x3d,
  0xe4, 0x2d, 0xc1, 0x3f, 0xc8, 0xe1, 0x55, 0xbd, 0x3c, 0xd1, 0x05, 0x3e,
  0xb2, 0x39, 0x07, 0x3f, 0x9a, 0x67, 0xb4, 0xbe, 0xf0, 0x46, 0x89, 0xbc,
  0x78, 0x13, 0x60, 0x3f, 0x97, 0xba, 0x92, 0xbe, 0x88, 0xb7, 0xe7, 0x3d,
  0xc3, 0xa7, 0x5e, 0xbf, 0xca, 0xf7, 0x20, 0x3f, 0x26, 0x4e, 0xf0, 0xbd,
  0x3a, 0xcf, 0xe1, 0xbd, 0x4e, 0x16, 0xd6, 0xbd, 0x58, 0x42, 0xf1, 0x3d,
  0xa3, 0x74, 0x37, 0xbf, 0x1d, 0xd5, 0x95, 0x3e, 0x1b, 0xcf, 0x09, 0xbe,
  0x4b, 0x40, 0x4f, 0x3e, 0x12, 0x4e, 0x92, 0x3e, 0x66, 0x0f, 0x2c, 0x3e,
  0x80, 0x93, 0x78, 0xbf, 0x28, 0x09, 0x66, 0x3f, 0x24, 0xf2, 0x98, 0x3e,
  0x34, 0xcc, 0xaa, 0x3d, 0xbd, 0x0b, 0x5f, 0xbe, 0x68, 0xf8, 0xb7, 0x3f,
  0x40, 0x52, 0xbd, 0xbc, 0xec, 0xa5, 0x05, 0x40, 0x2c, 0x06, 0xd7, 0xbf,
  0x88, 0xa1, 0x85, 0x3e, 0xd0, 0xff, 0x72, 0x3d, 0x70, 0x0c, 0xca, 0xbc,
  0x05, 0x71, 0x40, 0x40, 0xdc, 0x91, 0x39, 0x3e, 0x56, 0xac, 0x04, 0x40,
  0x6a, 0xf6, 0x53, 0xbf, 0x6d, 0x69, 0x20, 0xbe, 0xc0, 0x28, 0x8f, 0x3e,
  0x2c, 0xcd, 0x99, 0x3d, 0x6c, 0xf7, 0xb3, 0xbd, 0x4e, 0xb7, 0x49, 0x3f,
  0x04, 0x7b, 0x42, 0x3e, 0x16, 0x0d, 0x78, 0xbf, 0x69, 0xef, 0x51, 0xbe,
  0x54, 0x56, 0x0a, 0x3c, 0xfc, 0x84, 0x97, 0x3e, 0x1c, 0x2b, 0x17, 0x3e,
  0x58, 0xa1, 0x88, 0x3e, 0x38, 0xe3, 0x61, 0x3e, 0x6d, 0xae, 0x33, 0x40,
  0x0e, 0x60, 0x23, 0x3e, 0xb6, 0x1c, 0x1b, 0x3e, 0xcd, 0x4b, 0x00, 0x40,
  0x64, 0xe4, 0xbd, 0x3e, 0x74, 0xa9, 0x86, 0x3e, 0x03, 0x0b, 0x04, 0x40,
  0x78, 0xdc, 0xf8, 0x3d, 0x9e, 0x62, 0x92, 0xbe, 0x7a, 0xc2, 0x92, 0x3e,
  0xf7, 0x31, 0xac, 0x3d, 0x02, 0x3d, 0x03, 0x3e, 0x64, 0x05, 0x00, 0xbe,
  0x9c, 0x8d, 0x8b, 0xbd, 0x60, 0x29, 0x63, 0x3c, 0xe5, 0x38, 0xc9, 0xbf,
  0x48, 0x2b, 0x58, 0xbe, 0xb6, 0x09, 0x6e, 0xbe, 0x5c, 0xdd, 0x94, 0x3d,
  0x98, 0xb3, 0x5e, 0x3e, 0xb0, 0x15, 0x6c, 0x3d, 0xb0, 0xd5, 0x0a, 0xbf,
  0x05, 0x59, 0x09, 0x40, 0x70, 0x29, 0x80, 0x3c, 0x94, 0x7a, 0x7f, 0xbd,
  0x10, 0x1a, 0x95, 0xbc, 0xb6, 0x3c, 0xb1, 0xbd, 0xbc, 0x13, 0x49, 0x3e,
  0xf8, 0x17, 0x43, 0x3d, 0x78, 0xdb, 0x51, 0x3e, 0x0a, 0x37, 0x43, 0x3e,
  0x80, 0xff, 0x27, 0x3d, 0x90, 0xd6, 0x38, 0xbd, 0x60, 0x15, 0xc6, 0xbd,
  0x8c, 0xd2, 0x8c, 0xbe, 0xc2, 0xf1, 0x2d, 0x3e, 0xa0, 0x2d, 0x2f, 0xbc,
  0xc0, 0xaa, 0xe9, 0x3d, 0x5c, 0xe3, 0x88, 0xbe, 0x1c, 0xf3, 0x4a, 0x3e,
  0x30, 0x53, 0x27, 0x3e, 0xa0, 0xb2, 0xf9, 0x3d, 0xca, 0xf2, 0x05, 0x3e,
  0xd0, 0xe2, 0x89, 0xbe, 0xc4, 0xf5, 0x8b, 0x3e, 0x8f, 0xe6, 0x24, 0xbe,
  0xca, 0x40, 0xe3, 0xbd, 0x8a, 0x96, 0x3f, 0x3e, 0x7b, 0xe9, 0x88, 0xbe,
  0x24, 0x52, 0x5d, 0xbd, 0x12, 0x42, 0x80, 0xbe, 0x10, 0xe6, 0x95, 0x3e,
  0x30, 0x6a, 0x89, 0xbe, 0x00, 0x1b, 0xce, 0x3a, 0xa5, 0x12, 0x1d, 0xbe,
  0x40, 0x32, 0x84, 0xbc, 0x1c, 0xab, 0xa7, 0xbd, 0x5c, 0xaf, 0x3a, 0x3e,
  0xa8, 0x71, 0x99, 0x3d, 0x62, 0xc9, 0xd8, 0xbd, 0x74, 0x6b, 0x2e, 0x3e,
  0x57, 0xd0, 0x30, 0xbe, 0x1c, 0x93, 0x5c, 0x3e, 0xfc, 0x6a, 0x66, 0x3e,
  0x40, 0x65, 0x00, 0x3d, 0x46, 0xc5, 0x46, 0xbe, 0xa8, 0xf4, 0x5a, 0xbe,
  0x0e, 0x11, 0x96, 0x3e, 0x1c, 0x46, 0x63, 0x3e, 0x98, 0x9d, 0x36, 0xbe,
  0x3c, 0x64, 0x58, 0x3e, 0x74, 0x8b, 0x72, 0xbe, 0xf0, 0xd1, 0x57, 0x3e,
  0xcf, 0x03, 0x21, 0xbe, 0x80, 0xb3, 0x53, 0x3e, 0x40, 0xaa, 0x85, 0x3b,
  0x7c, 0xa7, 0xf2, 0xbd, 0xe8, 0x75, 0x25, 0x3e, 0xf8, 0xbf, 0x2d, 0x3e,
  0x5a, 0xc6, 0x3e, 0x3e, 0xbc, 0x60, 0x84, 0x3d, 0xd0, 0xb8, 0x28, 0x3d,
  0x3c, 0x8b, 0x17, 0x3e, 0x60, 0x87, 0x8d, 0xbe, 0x9c, 0x86, 0x50, 0x3e,
  0x90, 0xe1, 0x4d, 0xbe, 0x0f, 0x4b, 0x35, 0xbe, 0x80, 0xb5, 0x6c, 0x3c,
  0xf0, 0xfa, 0x4d, 0xbd, 0x00, 0xea, 0x68, 0x3a, 0xc7, 0x35, 0x83, 0xbe,
  0x10, 0x87, 0xab, 0x3d, 0xd0, 0x70, 0xb5, 0x3d, 0x0a, 0x6a, 0x87, 0xbe,
  0xf0, 0x54, 0x05, 0x3e, 0x9a, 0x8e, 0x18, 0x3e, 0xb0, 0x5c, 0x99, 0x3e,
  0x04, 0xc5, 0x82, 0xbe, 0x6e, 0xe6, 0x2e, 0x3e, 0xd2, 0x4b, 0x86, 0xbe,
  0x21, 0x4a, 0x1d, 0xbe, 0xd0, 0x31, 0xe3, 0xbc, 0xac, 0xde, 0x91, 0xbe,
  0x78, 0x5a, 0x7f, 0x3e, 0x9e, 0xdf, 0x1e, 0x3e, 0x68, 0x0f, 0x31, 0xbd,
  0x50, 0x0c, 0x04, 0x3e, 0x30, 0x84, 0x32, 0x3d, 0x5d, 0xa0, 0x89, 0xbe,
  0x20, 0xd4, 0xf9, 0xbd, 0x58, 0xa8, 0xdd, 0xbd, 0x92, 0xca, 0x8b, 0xbe,
  0xcd, 0x12, 0x90, 0xbe, 0x5c, 0x51, 0x58, 0x3e, 0x34, 0x33, 0x26, 0x3e,
  0x20, 0x98, 0x08, 0x3e, 0xf4, 0x71, 0xdd, 0x3d, 0x89, 0xcd, 0x96, 0xbe,
  0x9a, 0x29, 0x3f, 0x3e, 0x5d, 0xe3, 0x32, 0xbe, 0xc4, 0xd6, 0xdb, 0x3d,
  0x80, 0x80, 0xef, 0x3d, 0x00, 0x0f, 0x05, 0xbe, 0x54, 0x95, 0x5a, 0x3e,
  0x2c, 0xa0, 0x8a, 0x3d, 0xd8, 0x96, 0x08, 0xbd, 0xe3, 0x3b, 0x0e, 0xbf,
  0x8c, 0x23, 0xf7, 0x3d, 0x32, 0x9d, 0x25, 0x3f, 0xf9, 0x7a, 0x36, 0xc0,
  0x89, 0x32, 0x0c, 0x3d, 0x99, 0x1d, 0x35, 0xbe, 0x66, 0x68, 0x98, 0x3e,
  0x67, 0x65, 0xaa, 0x3f, 0x98, 0x93, 0x79, 0x3e, 0x0e, 0xc1, 0x7e, 0x3e,
  0x2b, 0x6a, 0x71, 0xbe, 0xde, 0xf2, 0x4a, 0x3e, 0x68, 0xa4, 0x20, 0x3d,
  0x0c, 0x65, 0x4f, 0x3e, 0x92, 0x4d, 0x33, 0x3e, 0xc2, 0x84, 0xb6, 0x3f,
  0x75, 0x03, 0x0f, 0xbe, 0x58, 0xc1, 0x17, 0xbf, 0xae, 0x17, 0xde, 0xbd,
  0x72, 0x48, 0x8b, 0x3f, 0x30, 0x11, 0xcf, 0xbc, 0x5e, 0xff, 0x23, 0xbe,
  0x0c, 0x0d, 0x70, 0x3e, 0xe2, 0x9d, 0x23, 0x3e, 0x6b, 0x57, 0xac, 0x3f,
  0xda, 0x44, 0x02, 0x3e, 0xd8, 0x86, 0xe7, 0x3d, 0xde, 0x2e, 0x32, 0xbf,
  0xd5, 0x69, 0x11, 0xbe, 0x34, 0x68, 0xe7, 0x3d, 0xe4, 0xae, 0x0e, 0x3f,
  0xf8, 0xc0, 0x6e, 0xbe, 0xdc, 0x62, 0x12, 0x3e, 0xf6, 0x57, 0xc1, 0xbf,
  0xfd, 0x68, 0x16, 0x40, 0x72, 0xcc, 0x85, 0x3e, 0xd2, 0x01, 0x29, 0x3e,
  0x6c, 0xb7, 0x7d, 0xbe, 0x90, 0x84, 0xce, 0xbd, 0x73, 0x8c, 0xb7, 0xbf,
  0x44, 0xea, 0x8a, 0xbd, 0xf0, 0x9b, 0x4c, 0x3e, 0x9f, 0x65, 0xe9, 0xbd,
  0x60, 0xe1, 0x02, 0xbe, 0x7a, 0x1a, 0x36, 0x3e, 0xff, 0x40, 0x09, 0xc0,
  0x5f, 0x3c, 0xdf, 0xbd, 0x6b, 0x1b, 0x91, 0xbe, 0x16, 0x9f, 0xe3, 0xbd,
  0x80, 0x55, 0x84, 0xbc, 0xd9, 0x46, 0x3b, 0xbe, 0xfe, 0x24, 0x88, 0xbd,
  0x0a, 0xbb, 0x4a, 0x3e, 0x98, 0x40, 0x1d, 0xbe, 0x3f, 0x26, 0x43, 0xbe,
  0x18, 0x89, 0x7f, 0xbd, 0x34, 0x32, 0x3f, 0xbe, 0xe9, 0x07, 0x93, 0xbe,
  0x86, 0xc3, 0x41, 0xbe, 0x93, 0x45, 0x31, 0x3d, 0xee, 0x97, 0xa2, 0xbc,
  0xea, 0x79, 0x88, 0xbe, 0xd2, 0xe4, 0x3d, 0x3e, 0xb2, 0x95, 0xa8, 0xbd,
  0xfe, 0xe2, 0x98, 0x3e, 0x7f, 0x4b, 0x9b, 0x3d, 0x0c, 0x50, 0x90, 0x3e,
  0xe8, 0x70, 0x91, 0xbe, 0xba, 0x80, 0x8f, 0xbd, 0x22, 0xa0, 0x95, 0xbe,
  0x64, 0x7c, 0x18, 0xbe, 0x48, 0x9a, 0x22, 0x3e, 0x33, 0xce, 0x96, 0xbe,
  0x53, 0xf6, 0x89, 0xbe, 0x40, 0xbf, 0x35, 0xbe, 0xd4, 0x87, 0x8f, 0xbd,
  0xc8, 0x7d, 0x24, 0x3e, 0x13, 0x5f, 0x8d, 0x3e, 0x0f, 0xff, 0x82, 0x3e,
  0xd4, 0xc8, 0x77, 0x3e, 0x7b, 0x75, 0x34, 0x3e, 0xe0, 0x35, 0xc7, 0xbc,
  0xc8, 0x41, 0x10, 0x3d, 0x82, 0x85, 0x72, 0xbe, 0x25, 0x64, 0xc9, 0x3d,
  0xe1, 0xc7, 0xc9, 0xbd, 0x54, 0x25, 0x2e, 0x3e, 0xd4, 0x6b, 0xaa, 0x3d,
  0x01, 0xaa, 0x11, 0xbe, 0xe5, 0xab, 0x02, 0xbe, 0xd9, 0x48, 0x73, 0x3e,
  0x00, 0x63, 0xc9, 0xba, 0x3a, 0xb6, 0x32, 0x3e, 0x34, 0x70, 0x0a, 0x3e,
  0xb7, 0x60, 0x2f, 0xbe, 0x47, 0x47, 0x96, 0xbe, 0x64, 0x7b, 0x90, 0xbe,
  0xd8, 0x96, 0x91, 0xbd, 0xdc, 0xd2, 0xef, 0x3d, 0x98, 0x89, 0x33, 0xbe,
  0xd5, 0x54, 0xfa, 0xbd, 0x0c, 0x39, 0xa5, 0xbd, 0xe2, 0x3d, 0x60, 0x3b,
  0x39, 0x3f, 0x92, 0x3d, 0x4e, 0x54, 0xad, 0x3d, 0xc0, 0x57, 0x64, 0xbe,
  0x08, 0xe9, 0xa9, 0xbd, 0xe8, 0x81, 0xaf, 0xbd, 0x17, 0xd9, 0x85, 0xbe,
  0x1c, 0x6d, 0x0a, 0xbe, 0xb2, 0x59, 0x45, 0x3e, 0x25, 0x98, 0xc8, 0x3d,
  0x74, 0x97, 0x55, 0xbe, 0x30, 0x71, 0xf1, 0xbc, 0xc0, 0xf5, 0xef, 0x3b,
  0xba, 0x2c, 0x87, 0xbe, 0x3c, 0xeb, 0xc1, 0x3d, 0x40, 0x02, 0x08, 0xbc,
  0xc4, 0xaa, 0x9f, 0x3d, 0x74, 0x64, 0x12, 0xbd, 0x18, 0xeb, 0x7d, 0xbe,
  0xad, 0x5b, 0x57, 0xbe, 0x03, 0x99, 0x1d, 0xbe, 0x00, 0x13, 0xf6, 0xbb,
  0x67, 0x84, 0x78, 0x3e, 0xa0, 0xe5, 0x35, 0x3d, 0xc8, 0x74, 0x91, 0xbe,
  0x41, 0xf8, 0xa5, 0xbe, 0xd9, 0x58, 0x81, 0x3e, 0xac, 0x93, 0xc3, 0x3d,
  0x11, 0x98, 0x2e, 0x3e, 0x1a, 0xde, 0x86, 0x3e, 0x60, 0xdf, 0xfa, 0xbc,
  0x79, 0x14, 0x57, 0x3e, 0xf9, 0x9f, 0x30, 0xbe, 0x3e, 0xe2, 0xb2, 0xbd,
  0x27, 0x04, 0x8d, 0xbe, 0x2c, 0x5d, 0x89, 0x3d, 0x53, 0x11, 0x80, 0xbe,
  0x55, 0x39, 0x29, 0x3d, 0x1a, 0xb4, 0x17, 0xbe, 0xff, 0x87, 0x80, 0xbe,
  0xf2, 0x90, 0x0d, 0x3d, 0xb0, 0x72, 0x50, 0x3e, 0x1a, 0x4e, 0x2e, 0x3e,
  0x9b, 0xb8, 0x80, 0x3e, 0xf5, 0x5d, 0x08, 0xbe, 0xd0, 0x72, 0x94, 0x3c,
  0x00, 0x75, 0x90, 0x3d, 0x2b, 0x6e, 0x4d, 0xbe, 0x7b, 0x77, 0xff, 0x3f,
  0x30, 0x4e, 0xdb, 0x3c, 0xd0, 0x5b, 0x15, 0x3f, 0x8a, 0x12, 0xa5, 0x3f,
  0xac, 0x5b, 0xa0, 0x3e, 0xd6, 0xc4, 0x6d, 0xbe, 0x1c, 0x75, 0x08, 0x3e,
  0x64, 0xe9, 0x84, 0xbd, 0x90, 0xe0, 0x69, 0x3e, 0x4a, 0x9d, 0x84, 0x3f,
  0x46, 0xf4, 0x69, 0xbd, 0xee, 0x10, 0x34, 0xbd, 0x0c, 0x6d, 0x4a, 0x3e,
  0xc8, 0xc9, 0x34, 0x3d, 0x1a, 0x2d, 0x2f, 0x3e, 0x33, 0xef, 0x47, 0xbf,
  0xd3, 0x1d, 0x02, 0xbe, 0x4f, 0x36, 0x66, 0x3e, 0x84, 0x12, 0x5a, 0xbb,
  0x93, 0x3b, 0xfd, 0xbe, 0x40, 0x8d, 0x41, 0x3e, 0x76, 0x36, 0x16, 0x3e,
  0x41, 0x78, 0x57, 0xbe, 0xc2, 0xec, 0x94, 0xbe, 0x49, 0x8b, 0xee, 0xbe,
  0x40, 0x3d, 0x87, 0x3d, 0xea, 0x3c, 0x38, 0x3e, 0x31, 0x73, 0x04, 0x40,
  0xc7, 0x08, 0xf4, 0x3e, 0x6c, 0xe0, 0xea, 0xbd, 0x55, 0x0a, 0xfd, 0x3e,
  0xb8, 0xe3, 0xa0, 0x3d, 0xe9, 0x1b, 0x29, 0xbe, 0xde, 0x70, 0x20, 0x40,
  0xb1, 0x8b, 0xb0, 0xbf, 0xb2, 0xf7, 0x4e, 0x3d, 0xac, 0xa6, 0x98, 0xbe,
  0x5e, 0x31, 0x8d, 0xbe, 0xe8, 0xcb, 0x56, 0x3e, 0x56, 0xd9, 0x1f, 0x3f,
  0xcb, 0x3b, 0xf4, 0x3c, 0xc4, 0xf9, 0xf5, 0x3d, 0xfd, 0x6f, 0x8d, 0x3e,
  0x10, 0x87, 0xa0, 0x3c, 0xb8, 0x51, 0xc0, 0x3d, 0xd3, 0x33, 0x02, 0x40,
  0xaa, 0x94, 0xec, 0x3f, 0xc8, 0x48, 0xb0, 0xbd, 0xce, 0xfc, 0x6e, 0xbe,
  0xfa, 0x5a, 0x33, 0x3e, 0x87, 0x7e, 0x8c, 0x3d, 0xc6, 0x6f, 0xb4, 0xbd,
  0xb7, 0xc7, 0xef, 0xbd, 0x73, 0xa3, 0x90, 0xbe, 0x13, 0xb0, 0x59, 0x3e,
  0x60, 0x12, 0x30, 0x3c, 0xb4, 0x1d, 0x79, 0x3e, 0x7c, 0x5e, 0x8e, 0x3e,
  0xb0, 0x18, 0xee, 0x3d, 0x16, 0x2b, 0x14, 0xbe, 0xe2, 0x33, 0x78, 0xbd,
  0x28, 0xf3, 0x7e, 0x3e, 0x06, 0x2e, 0x82, 0x3e, 0xb4, 0x24, 0x4e, 0x3e,
  0x18, 0x1f, 0x95, 0x3d, 0xd9, 0xdc, 0x24, 0x3e, 0xd8, 0x1a, 0x02, 0xbd,
  0x5b, 0x2a, 0x91, 0x3e, 0xa5, 0x49, 0x4c, 0x3e, 0xd5, 0x08, 0x34, 0xbe,
  0x37, 0x4b, 0x91, 0xbe, 0x40, 0xef, 0xc3, 0x3b, 0xfb, 0xf5, 0x1d, 0xbe,
  0x5a, 0xde, 0x48, 0x3e, 0x42, 0x7e, 0x5d, 0x3d, 0xac, 0x6f, 0x80, 0x3e,
  0xf2, 0xf6, 0x3f, 0x3e, 0x58, 0x6a, 0x0e, 0xbe, 0x1e, 0xf2, 0x5d, 0xbe,
  0x3a, 0x87, 0x87, 0x3e, 0x81, 0xca, 0x2d, 0xbe, 0x70, 0x46, 0x95, 0xbd,
  0x34, 0xe8, 0x39, 0x3e, 0x94, 0x50, 0x07, 0x3e, 0x7d, 0x66, 0x35, 0x3e,
  0x5f, 0xe0, 0x82, 0xbe, 0xe1, 0x0b, 0x8f, 0xbe, 0x84, 0xe8, 0x27, 0x3e,
  0x33, 0xa5, 0x29, 0xbe, 0x3b, 0x88, 0x9d, 0xbe, 0xd2, 0x78, 0x00, 0xbe,
  0x0e, 0x84, 0x82, 0x3e, 0x00, 0x3f, 0x44, 0x3c, 0x6c, 0x8b, 0xe4, 0x3d,
  0xe0, 0x93, 0x1a, 0x3d, 0xa6, 0x5f, 0x44, 0x3e, 0x76, 0x1f, 0x81, 0x3e,
  0x80, 0xcf, 0x2d, 0xbb, 0xf0, 0x51, 0x9a, 0x3c, 0xbc, 0x3e, 0x0e, 0x3e,
  0x3d, 0x16, 0xc5, 0xbf, 0xa0, 0x47, 0x79, 0xbe, 0x5a, 0xc1, 0x83, 0xbf,
  0x2b, 0x72, 0xd1, 0x3f, 0xfa, 0xee, 0x15, 0x3f, 0x4c, 0x45, 0xa8, 0xbd,
  0x29, 0xb5, 0x80, 0xbe, 0x34, 0x8b, 0xc2, 0xbf, 0xd0, 0x5f, 0x04, 0xbd,
  0xcb, 0xaa, 0x5c, 0xbf, 0xef, 0xda, 0xc6, 0x3f, 0x88, 0x7a, 0x40, 0x3e,
  0xdc, 0x62, 0x8f, 0x3e, 0x94, 0xae, 0xcb, 0x3d, 0xe8, 0x6d, 0x63, 0x3e,
  0x0a, 0xd3, 0xef, 0x3e, 0xa0, 0x25, 0xac, 0x3d, 0x8c, 0x78, 0x95, 0x3f,
  0x34, 0xc8, 0x83, 0x3e, 0x6e, 0x12, 0xa5, 0x3f, 0x48, 0xb0, 0x8a, 0x3e,
  0xb0, 0xea, 0x8c, 0x3e, 0xf4, 0xfd, 0x8c, 0x3e, 0xb8, 0xa8, 0x33, 0x3e,
  0xfb, 0xd5, 0x87, 0xbf, 0x48, 0x67, 0xe6, 0xbd, 0x12, 0x22, 0x51, 0xbe,
  0x10, 0x39, 0xfb, 0xbf, 0xd8, 0xe5, 0x12, 0x3f, 0x4d, 0xa1, 0x15, 0xbe,
  0xaf, 0x26, 0x3e, 0xbf, 0x10, 0xd2, 0x90, 0x3e, 0xa0, 0x9d, 0xdf, 0x3c,
  0x0e, 0x8a, 0xa0, 0xbf, 0xf9, 0x71, 0x81, 0x3f, 0x28, 0x22, 0x3a, 0x3f,
  0xd8, 0x2f, 0x7a, 0x3d, 0x40, 0xb6, 0x09, 0x3c, 0xfc, 0x22, 0x8d, 0xbe,
  0x64, 0x77, 0x05, 0x40, 0x6c, 0x54, 0x54, 0x3f, 0x88, 0x5a, 0xe2, 0x3d,
  0xdc, 0xd8, 0x36, 0xbe, 0x7c, 0x46, 0x64, 0x3e, 0x70, 0xfd, 0x8c, 0x3c,
  0x21, 0x75, 0xd8, 0x3e, 0xe6, 0xf6, 0xf3, 0xbf, 0x3e, 0xaf, 0x0e, 0xbe,
  0xb8, 0x66, 0xd3, 0x3d, 0xb8, 0xc6, 0x14, 0x3d, 0x48, 0xef, 0x8a, 0x3d,
  0x92, 0x08, 0x98, 0xbe, 0xb4, 0x70, 0x81, 0xbd, 0x8d, 0x23, 0x9a, 0xbe,
  0xd5, 0xb6, 0x2d, 0xbe, 0x64, 0x22, 0x44, 0x3e, 0xe0, 0xa0, 0xf2, 0xbd,
  0xed, 0xbb, 0x99, 0xbe, 0x10, 0x69, 0x98, 0x3e, 0x00, 0x17, 0x2b, 0x3c,
  0xb0, 0x66, 0xe3, 0x3c, 0xc2, 0xc1, 0x18, 0xbe, 0x1a, 0x7a, 0x20, 0x3e,
  0x20, 0xc3, 0x30, 0x3e, 0xe4, 0xc3, 0x50, 0x3e, 0x84, 0x69, 0x1f, 0x3e,
  0xd0, 0xbd, 0x49, 0xbe, 0x2e, 0x89, 0x5a, 0xbe, 0x7a, 0xcd, 0x81, 0xbe,
  0x68, 0x6d, 0xfa, 0x3d, 0x08, 0xe3, 0x75, 0x3d, 0x99, 0x5b, 0x2b, 0xbe,
  0x04, 0xb2, 0x65, 0xbe, 0x76, 0xf5, 0x04, 0x3e, 0x38, 0xa6, 0x4f, 0x3e,
  0x70, 0xf1, 0xcd, 0x3d, 0xc2, 0x1d, 0xc9, 0xbd, 0xec, 0xdb, 0x59, 0x3e,
  0xa0, 0xcf, 0x34, 0x3d, 0x34, 0x81, 0xe0, 0x3d, 0x36, 0x4c, 0x06, 0xbe,
  0xbc, 0xe9, 0x99, 0xbd, 0x58, 0x73, 0x7f, 0x3e, 0xb0, 0x80, 0x5c, 0x3e,
  0x7b, 0x7c, 0x9b, 0xbe, 0xfd, 0x73, 0x75, 0xbe, 0xe3, 0xe3, 0x14, 0xbe,
  0x0c, 0x41, 0xbb, 0x3d, 0xf4, 0xb4, 0x85, 0x3e, 0x8d, 0x58, 0x06, 0xbe,
  0xc0, 0xa0, 0x22, 0x3c, 0xa4, 0x0d, 0x80, 0xbe, 0xac, 0x9b, 0x78, 0x3e,
  0x3a, 0xde, 0x3f, 0x3e, 0xec, 0x65, 0x73, 0x3e, 0xf8, 0xc3, 0x7c, 0x3e,
  0xf8, 0xa0, 0xc9, 0x3d, 0x34, 0x4c, 0x84, 0xbe, 0x52, 0x1a, 0x88, 0xbd,
  0xd8, 0x0f, 0x55, 0x3d, 0xe8, 0xc9, 0x71, 0x3d, 0x17, 0x9c, 0x1b, 0xbe,
  0x24, 0x28, 0x8b, 0xbe, 0x58, 0xd8, 0x5d, 0x3d, 0x40, 0x3b, 0xe9, 0xbd,
  0x4e, 0xac, 0x3f, 0x3e, 0x90, 0x92, 0x2a, 0x3e, 0xe0, 0xbd, 0x29, 0x3d,
  0x2a, 0x6b, 0x15, 0x3e, 0x38, 0x80, 0x49, 0x3e, 0x81, 0x30, 0x93, 0xbe,
  0x35, 0xd8, 0x27, 0xbe, 0x7c, 0xba, 0x61, 0x3e, 0xfa, 0x65, 0x97, 0xbe,
  0x10, 0xb4, 0x01, 0x3d, 0xc9, 0x8b, 0x1c, 0xbe, 0x40, 0x33, 0x2e, 0xbe,
  0x38, 0x07, 0x3d, 0x3d, 0x54, 0xc2, 0xde, 0xbd, 0x00, 0xda, 0x0d, 0x3b,
  0x2a, 0x74, 0xbc, 0xbd, 0xe0, 0xe4, 0xd0, 0x3c, 0xbe, 0x48, 0x0e, 0x3e,
  0xe6, 0xcf, 0x3b, 0x3e, 0x69, 0x3b, 0x5e, 0xbe, 0x73, 0xc1, 0x3e, 0xbe,
  0x26, 0xbd, 0xf0, 0xbd, 0x65, 0x44, 0x13, 0xbe, 0x80, 0x1d, 0xe2, 0xbc,
  0x60, 0xca, 0x3c, 0xbe, 0xb0, 0x2a, 0x8d, 0x3d, 0x76, 0x37, 0x15, 0x3e,
  0x70, 0xc1, 0xa1, 0x3d, 0x83, 0xfa, 0x32, 0xbe, 0x55, 0x3e, 0x15, 0xbe,
  0x16, 0x86, 0xc0, 0xbd, 0xb3, 0xee, 0x17, 0xbe, 0x6c, 0xe2, 0x61, 0xbe,
  0x46, 0x9c, 0x88, 0x3e, 0xf8, 0x53, 0x81, 0x3e, 0xf4, 0xa1, 0x38, 0x3e,
  0x0e, 0x88, 0x33, 0xbe, 0xcc, 0xec, 0xc8, 0x3d, 0x00, 0xe9, 0x84, 0x3b,
  0x46, 0x7b, 0x6f, 0xbe, 0x00, 0xcf, 0x91, 0x3b, 0x20, 0xe4, 0x00, 0x3d,
  0x6e, 0x3d, 0x0f, 0xbe, 0xb8, 0x50, 0x55, 0x3e, 0x00, 0xe1, 0xa3, 0x3b,
  0xb8, 0xed, 0x87, 0xbe, 0x50, 0x3f, 0x6d, 0x3e, 0x80, 0x3a, 0x77, 0x3e,
  0xa0, 0xb0, 0x9b, 0xbe, 0x5c, 0xb3, 0xbe, 0x3d, 0x50, 0xfd, 0x59, 0x3d,
  0x00, 0xa4, 0x01, 0xba, 0x48, 0x47, 0x3c, 0x3e, 0xf0, 0xfa, 0x61, 0xbe,
  0x28, 0x82, 0x6c, 0xbe, 0xa2, 0x2d, 0x74, 0xbe, 0x98, 0xc8, 0x13, 0xbe,
  0xcc, 0x89, 0x29, 0x3e, 0x76, 0x03, 0x47, 0x3e, 0xa8, 0xe9, 0x72, 0x3e,
  0x7c, 0xbb, 0x83, 0xbd, 0x00, 0xda, 0xde, 0xbc, 0x1a, 0x49, 0x04, 0xbe,
  0x50, 0xb2, 0x52, 0x3e, 0x84, 0x35, 0x84, 0x3b, 0x88, 0xeb, 0xd4, 0x3d,
  0x84, 0x5d, 0xf9, 0xbd, 0x3c, 0xe6, 0xcd, 0x3d, 0xfc, 0xfe, 0x91, 0x3e,
  0xcc, 0x75, 0x0e, 0xbe, 0xd4, 0x3c, 0x82, 0x3e, 0xf2, 0xc7, 0x10, 0x3e,
  0x49, 0x12, 0xf7, 0xbd, 0x85, 0x74, 0xb2, 0xbd, 0x40, 0x7c, 0x54, 0x3d,
  0x05, 0xed, 0x67, 0x3e, 0x1c, 0x96, 0x79, 0x3e, 0xf0, 0x11, 0x4b, 0x3e,
  0x6d, 0x58, 0x0f, 0xbe, 0x12, 0xed, 0x83, 0x3e, 0xa8, 0xaf, 0x0e, 0x3d,
  0x34, 0x39, 0x78, 0x3e, 0x64, 0x77, 0x80, 0xbe, 0xf5, 0xf7, 0x90, 0xbe,
  0x61, 0x4b, 0x82, 0xbe, 0x4c, 0x8f, 0xd4, 0xbd, 0x20, 0x0c, 0xf2, 0x3c,
  0x6f, 0x1d, 0x84, 0xbe, 0x3a, 0x79, 0x89, 0xbe, 0xa4, 0x5e, 0x6b, 0x3e,
  0xce, 0xe8, 0x6f, 0xbe, 0x96, 0x33, 0x61, 0x3e, 0x1c, 0x67, 0xc7, 0x3d,
  0x66, 0xf9, 0xff, 0xff, 0x04, 0x00, 0x00, 0x00, 0xb0, 0x04, 0x00, 0x00,
  0xa1, 0x96, 0x89, 0xbe, 0xae, 0x66, 0x9e, 0xbe, 0x78, 0xcb, 0xab, 0xbd,
  0x98, 0xb8, 0x60, 0x3e, 0xe6, 0x3a, 0x16, 0x3e, 0x94, 0x86, 0x81, 0xbe,
  0xd0, 0x0d, 0x40, 0x3e, 0x5a, 0xb7, 0xfa, 0xbd, 0xe0, 0xb0, 0xaf, 0xbd,
  0xfa, 0xd3, 0x15, 0x3e, 0xab, 0x72, 0x1c, 0xbe, 0x00, 0x18, 0xc5, 0xbd,
  0xd9, 0xa8, 0x3e, 0xbd, 0xaf, 0xc5, 0x96, 0x3f, 0x24, 0x8d, 0xcb, 0xbe,
  0x5c, 0x86, 0x32, 0x3e, 0x6e, 0xac, 0x0d, 0xbe, 0x3b, 0xff, 0xd6, 0x3c,
  0x00, 0x94, 0x46, 0x3e, 0x7a, 0xbd, 0x12, 0x3e, 0x86, 0xb6, 0x58, 0xbe,
  0xf0, 0x86, 0xc0, 0x3c, 0x34, 0x88, 0x87, 0xbe, 0x98, 0x86, 0x96, 0xbd,
  0x01, 0x70, 0x64, 0xbf, 0x15, 0xce, 0x65, 0x3f, 0x4f, 0xf8, 0x1b, 0x3e,
  0x25, 0xeb, 0xf4, 0x3d, 0x6f, 0x8d, 0xd5, 0x3d, 0x2f, 0xcc, 0x5f, 0x3c,
  0xb7, 0x2d, 0x8d, 0x3f, 0x90, 0xac, 0x15, 0x3e, 0x8a, 0xa8, 0xd2, 0xbd,
  0x29, 0xe7, 0x85, 0xbd, 0x5d, 0xe0, 0xbd, 0xbd, 0x60, 0x15, 0xd2, 0xbe,
  0x30, 0x26, 0x24, 0x3f, 0x0d, 0x6a, 0x9f, 0x3e, 0x8b, 0x80, 0xa4, 0x3e,
  0x74, 0xcf, 0xfe, 0x3e, 0x89, 0x8e, 0xf4, 0x3d, 0x95, 0x37, 0x1c, 0x3f,
  0xa8, 0xde, 0x8c, 0xbd, 0x32, 0x45, 0x91, 0x3e, 0xb8, 0x73, 0x13, 0x3e,
  0x71, 0xcc, 0x07, 0xbe, 0x95, 0x9d, 0x81, 0xbe, 0xae, 0xdb, 0xa5, 0xbe,
  0xe8, 0x6f, 0x3e, 0x3d, 0xab, 0x43, 0xa2, 0xbe, 0x06, 0xb3, 0x31, 0xbe,
  0x86, 0x58, 0x86, 0x3e, 0x28, 0x69, 0x20, 0xbe, 0x5e, 0x26, 0x92, 0x3e,
  0xfc, 0xb6, 0x85, 0xbf, 0x9d, 0x47, 0x1e, 0x3f, 0x64, 0x9c, 0x63, 0x3e,
  0x4d, 0xc9, 0x99, 0x3e, 0xb3, 0x26, 0xa7, 0x3e, 0x9e, 0x37, 0x3a, 0xbe,
  0xc0, 0x54, 0xa5, 0xbb, 0x80, 0x23, 0xb3, 0x3c, 0xf1, 0xa3, 0x48, 0xbe,
  0x7a, 0xd5, 0x96, 0xbe, 0x80, 0x8b, 0x2d, 0xbe, 0x3c, 0xfe, 0x54, 0x3e,
  0x88, 0xe9, 0x2d, 0xbf, 0x98, 0xcc, 0xa1, 0x3f, 0xf7, 0xc3, 0x85, 0xbe,
  0xaf, 0xca, 0x62, 0x3e, 0x5e, 0x76, 0x58, 0x3d, 0x88, 0x3b, 0x8f, 0x3d,
  0x07, 0x96, 0xa5, 0x3f, 0xe5, 0x45, 0x1c, 0xbf, 0xa6, 0xeb, 0x00, 0x3f,
  0x61, 0xe0, 0x4d, 0x3d, 0x50, 0xf1, 0x81, 0x3e, 0x29, 0x92, 0x93, 0x3e,
  0x2e, 0x4c, 0x3a, 0x3e, 0x36, 0xd6, 0x91, 0x3e, 0xc5, 0x2f, 0x8c, 0xbe,
  0xb0, 0x49, 0xa1, 0xbe, 0x00, 0x95, 0xa1, 0xbd, 0xa4, 0x70, 0xae, 0x3d,
  0x40, 0xf6, 0xde, 0x3c, 0x54, 0xc7, 0x0d, 0xbe, 0x1d, 0x11, 0x3e, 0xbe,
  0x88, 0x27, 0x82, 0xbe, 0xa0, 0x78, 0x8a, 0xbe, 0xf7, 0xbd, 0x69, 0xbe,
  0x40, 0x35, 0xe7, 0x3b, 0xd4, 0x46, 0x7b, 0x3e, 0x16, 0xaa, 0x95, 0xbe,
  0x27, 0x70, 0x20, 0xbe, 0xc1, 0x16, 0x85, 0xbe, 0x86, 0x9d, 0x98, 0x3e,
  0x9b, 0x03, 0x86, 0xbe, 0xc0, 0xd1, 0x50, 0xbe, 0x54, 0x11, 0xa2, 0xbd,
  0x68, 0xab, 0x2b, 0xbd, 0xe8, 0x68, 0x8e, 0xbe, 0xa0, 0x5a, 0x63, 0x3e,
  0xe0, 0xa1, 0x2b, 0xbf, 0xb6, 0xf2, 0xde, 0xbe, 0xe8, 0x3c, 0x1c, 0x3f,
  0xc3, 0xca, 0x1d, 0x3f, 0xac, 0x16, 0x82, 0x3e, 0x42, 0xff, 0x02, 0x3f,
  0x6f, 0xdc, 0x16, 0xbe, 0x57, 0xa0, 0x42, 0xbe, 0x94, 0x7f, 0x75, 0x3e,
  0x78, 0xcb, 0x4b, 0xbd, 0x62, 0x43, 0x48, 0xbe, 0xd6, 0x45, 0xc2, 0xbd,
  0xf5, 0x1b, 0x85, 0x3f, 0x5c, 0xf7, 0x8a, 0xbe, 0xb3, 0x97, 0x11, 0x3e,
  0x91, 0x17, 0x27, 0x3e, 0x6a, 0x95, 0xc5, 0x3b, 0xfc, 0xa6, 0x0d, 0xbe,
  0xe3, 0xef, 0xd1, 0x3d, 0x43, 0x1b, 0x3a, 0x3e, 0xfa, 0x61, 0x5d, 0x3d,
  0xb1, 0xff, 0x2f, 0xbe, 0x93, 0xb6, 0x82, 0x3d, 0xb2, 0xd3, 0x93, 0xbe,
  0xea, 0x61, 0x31, 0xbe, 0x71, 0x45, 0x94, 0xbf, 0xb5, 0xdc, 0x0a, 0x3f,
  0x4b, 0x77, 0x06, 0x3f, 0x52, 0x00, 0x07, 0x3f, 0x75, 0xff, 0xec, 0x3e,
  0xc6, 0xb8, 0x8f, 0xbe, 0xc8, 0x17, 0x3c, 0xbe, 0xb1, 0xb9, 0x00, 0xbe,
  0x60, 0x38, 0x24, 0xbd, 0x1f, 0x65, 0x90, 0xbe, 0x8b, 0x9d, 0x88, 0xbe,
  0x39, 0x36, 0x93, 0xbe, 0xc0, 0xd3, 0x36, 0xbc, 0x00, 0x7d, 0xf0, 0xbb,
  0x34, 0xe6, 0x9d, 0x3e, 0xb0, 0xe1, 0x65, 0x3d, 0x9a, 0x0e, 0x6f, 0xbe,
  0xa6, 0x04, 0x03, 0xbe, 0x80, 0x13, 0x46, 0x3c, 0x7a, 0xed, 0x3d, 0xbe,
  0x34, 0x1a, 0x91, 0xbe, 0x1c, 0xcb, 0xc7, 0x3d, 0x10, 0xf2, 0xa8, 0xbd,
  0xcc, 0x89, 0x94, 0x3e, 0xc6, 0xd4, 0xc0, 0xbd, 0x00, 0x2d, 0x87, 0xbd,
  0xb7, 0xcb, 0x82, 0xbe, 0xa0, 0x27, 0x16, 0x3e, 0x47, 0x72, 0x93, 0xbe,
  0x34, 0x22, 0x83, 0xbf, 0x95, 0xc1, 0xd6, 0x3e, 0x76, 0xde, 0x49, 0x3e,
  0x72, 0xe0, 0xcc, 0x3e, 0x65, 0xf5, 0xaa, 0xbd, 0x16, 0xd9, 0xb2, 0x3e,
  0x56, 0x6d, 0x94, 0xbe, 0xbc, 0x2e, 0xdb, 0x3d, 0xc2, 0xfd, 0x7b, 0xbe,
  0x06, 0x0d, 0x80, 0x3e, 0xe7, 0x82, 0x21, 0xbe, 0xbc, 0x9b, 0x63, 0xbe,
  0xc6, 0x39, 0x12, 0xbe, 0xca, 0x8d, 0x8b, 0xbe, 0x4a, 0xe0, 0x53, 0xbe,
  0x40, 0xe3, 0xd9, 0xbc, 0x48, 0xc8, 0x74, 0xbd, 0x8e, 0x09, 0x16, 0x3e,
  0x99, 0x22, 0x02, 0xbe, 0x7b, 0x36, 0xae, 0x3f, 0x3a, 0x26, 0xea, 0x3d,
  0xc3, 0xa1, 0xd0, 0xbe, 0x74, 0x20, 0x01, 0x3e, 0x64, 0xa9, 0xcc, 0xbe,
  0x8e, 0x62, 0x44, 0x3f, 0xf4, 0xb2, 0x57, 0x3f, 0xfb, 0xe2, 0x89, 0xbd,
  0xf6, 0x32, 0x82, 0x3e, 0xfa, 0x8f, 0x53, 0x3d, 0x68, 0xec, 0x73, 0xbe,
  0x70, 0xf2, 0xd5, 0x3c, 0x5e, 0x1e, 0x74, 0xbe, 0x32, 0x7c, 0x2b, 0xbe,
  0xe6, 0x34, 0x54, 0xbe, 0xe0, 0x99, 0x62, 0x3c, 0x1c, 0xec, 0x83, 0xbe,
  0xce, 0xd8, 0x5d, 0xbf, 0x43, 0xc8, 0x81, 0x3f, 0x0c, 0x47, 0x5b, 0xbe,
  0x7c, 0x25, 0xd0, 0x3c, 0xfe, 0xca, 0x94, 0x3e, 0xdf, 0x3d, 0x25, 0x3d,
  0x1a, 0x22, 0x66, 0xbe, 0xc0, 0xc2, 0xa0, 0x3e, 0x40, 0x96, 0x49, 0x3e,
  0x4b, 0xa2, 0x41, 0xbe, 0x44, 0xe8, 0x59, 0xbe, 0x80, 0xa4, 0x26, 0xbd,
  0xe6, 0x9e, 0x2a, 0x3e, 0x70, 0x43, 0xd2, 0x3c, 0xfc, 0xdf, 0x15, 0x3e,
  0x9e, 0xe4, 0x7d, 0xbe, 0x4c, 0x18, 0xf5, 0xbd, 0x1b, 0x1b, 0x94, 0xbe,
  0x37, 0x57, 0xf9, 0x3e, 0xfb, 0x18, 0x8d, 0x3f, 0x78, 0x1b, 0xb1, 0xbd,
  0x45, 0xae, 0xcd, 0xbe, 0x5d, 0x60, 0xd9, 0xbe, 0x85, 0x7c, 0xb3, 0xbd,
  0x9e, 0x86, 0xf9, 0xbe, 0xdc, 0xe4, 0x78, 0xbf, 0x9f, 0xf2, 0x0f, 0x3f,
  0xa6, 0xdc, 0x25, 0x3f, 0xb2, 0xdd, 0x09, 0x3e, 0xa0, 0x67, 0x15, 0x3f,
  0xe8, 0x23, 0x9d, 0x3f, 0xf1, 0xe8, 0x9b, 0xbd, 0x9d, 0xfa, 0x17, 0x3f,
  0xe8, 0xc9, 0xc6, 0x3e, 0x6d, 0x73, 0x72, 0x3f, 0x45, 0xb5, 0x77, 0x3f,
  0x10, 0x33, 0x7a, 0xbd, 0xf0, 0x45, 0x13, 0x3e, 0x39, 0xc7, 0x26, 0xbe,
  0x68, 0x82, 0x3d, 0x3d, 0x40, 0xf8, 0xfe, 0xbc, 0x80, 0x2e, 0x8c, 0x3c,
  0xd8, 0x86, 0x28, 0xbe, 0x40, 0xbf, 0x36, 0xbc, 0xda, 0xd7, 0xf0, 0xbd,
  0x06, 0x40, 0x93, 0xbe, 0xd8, 0x06, 0x10, 0xbd, 0x20, 0x55, 0x60, 0xbe,
  0xc8, 0xab, 0x6a, 0xbd, 0xc2, 0x57, 0x9f, 0xbe, 0x9e, 0xcd, 0x90, 0x3e,
  0xf2, 0x80, 0xc5, 0xbd, 0xdc, 0x57, 0xa1, 0x3d, 0x0e, 0x2e, 0x76, 0xbe,
  0xfc, 0xa8, 0x8c, 0x3f, 0x86, 0x0d, 0x4b, 0xbe, 0xd1, 0x93, 0x22, 0xbe,
  0xdc, 0xef, 0x94, 0x3d, 0x5d, 0x92, 0x88, 0xbe, 0x8c, 0xe6, 0x04, 0x3e,
  0x76, 0x7d, 0x87, 0x3f, 0x29, 0xd4, 0x4e, 0x3d, 0xaa, 0x36, 0xc6, 0x3e,
  0xc1, 0xcc, 0xdf, 0x3e, 0xe1, 0x80, 0x2c, 0x3f, 0x51, 0x7a, 0x02, 0x3f,
  0xcc, 0x8c, 0x24, 0xbe, 0x08, 0x71, 0x26, 0x3d, 0x7a, 0xed, 0x03, 0x3e,
  0xd4, 0x49, 0x54, 0xbe, 0x90, 0x8e, 0x01, 0x3d, 0x8c, 0x17, 0xad, 0x3d,
  0xd3, 0xb0, 0x19, 0xbe, 0xa9, 0x3f, 0x81, 0xbe, 0x0a, 0x30, 0x7d, 0xbd,
  0xb1, 0x3b, 0xd7, 0x3d, 0x94, 0xb6, 0xa1, 0x3d, 0x96, 0x1a, 0x71, 0x3e,
  0xf0, 0x90, 0x9e, 0xbc, 0x80, 0xe3, 0xe1, 0x3b, 0xe0, 0xd5, 0x48, 0xbc,
  0x93, 0x59, 0x38, 0xbe, 0xc0, 0x66, 0x99, 0xbb, 0x31, 0x45, 0x26, 0xbe,
  0x50, 0x47, 0x1e, 0xbd, 0x6c, 0xe9, 0x50, 0xbe, 0x54, 0x5e, 0x8b, 0x3e,
  0x5c, 0x1a, 0x99, 0xbd, 0x7b, 0x6e, 0x11, 0xbe, 0x18, 0x85, 0xb6, 0x3d,
  0x58, 0x18, 0x56, 0x3f, 0xa7, 0x53, 0x26, 0x3f, 0x1b, 0x4c, 0x0c, 0xbe,
  0x77, 0xdd, 0xd6, 0xbc, 0xc5, 0xc8, 0xd5, 0xbe, 0x4e, 0x28, 0x67, 0xbe,
  0x4a, 0x7b, 0xe9, 0xbe, 0x13, 0x80, 0xa8, 0x3f, 0xa0, 0x4e, 0x86, 0xbe,
  0x7a, 0x00, 0x68, 0x3e, 0xf6, 0xe6, 0x8b, 0xbe, 0x20, 0x61, 0x57, 0x3d,
  0x20, 0x85, 0x9f, 0xbc, 0x40, 0x09, 0x96, 0xbb, 0x23, 0x19, 0x4c, 0xbe,
  0x72, 0x73, 0x45, 0xbe, 0x30, 0xe6, 0x5a, 0xbd, 0xf9, 0xd5, 0x4d, 0xbe,
  0x22, 0xfe, 0xff, 0xff, 0x04, 0x00, 0x00, 0x00, 0xc8, 0x00, 0x00, 0x00,
  0x00, 0x00, 0x00, 0x00, 0x00, 0x00, 0x00, 0x00, 0x65, 0xf4, 0x0a, 0xbe,
  0x00, 0x00, 0x00, 0x00, 0x7d, 0x3d, 0x35, 0xbd, 0x3e, 0xc6, 0x2a, 0xbe,
  0x9c, 0x52, 0x99, 0x3e, 0x00, 0x00, 0x00, 0x00, 0x00, 0x00, 0x00, 0x00,
  0xd2, 0x2c, 0x0a, 0x3d, 0x00, 0x00, 0x00, 0x00, 0xcc, 0xe2, 0xc9, 0xbd,
  0x24, 0x0e, 0x58, 0x3e, 0x37, 0x84, 0x5f, 0xbb, 0x00, 0x00, 0x00, 0x00,
  0x00, 0x00, 0x00, 0x00, 0x00, 0x00, 0x00, 0x00, 0xb0, 0x24, 0xbf, 0x3e,
  0x00, 0x00, 0x00, 0x00, 0x62, 0x68, 0xa0, 0xbd, 0x54, 0xb1, 0xb6, 0xbc,
  0x72, 0x1c, 0x8f, 0x3e, 0x00, 0x00, 0x00, 0x00, 0x00, 0x00, 0x00, 0x00,
  0x00, 0x00, 0x00, 0x00, 0x00, 0x00, 0x00, 0x00, 0x07, 0x23, 0xed, 0x3d,
  0x00, 0x00, 0x00, 0x00, 0x00, 0x00, 0x00, 0x00, 0xb5, 0x6d, 0xb8, 0xbd,
  0x38, 0x12, 0x61, 0xbc, 0x00, 0x00, 0x00, 0x00, 0x19, 0x0c, 0xef, 0x3c,
  0x00, 0x00, 0x00, 0x00, 0x00, 0x00, 0x00, 0x00, 0x55, 0x52, 0x3c, 0xbe,
  0x22, 0x1f, 0xae, 0x3e, 0xdb, 0x64, 0x34, 0x3f, 0x00, 0x00, 0x00, 0x00,
  0x00, 0x00, 0x00, 0x00, 0x00, 0x00, 0x00, 0x00, 0xf3, 0xd3, 0x90, 0xbd,
  0x76, 0xe5, 0xb3, 0x3e, 0x00, 0x00, 0x00, 0x00, 0x1b, 0x8b, 0x22, 0xbc,
  0x00, 0x00, 0x00, 0x00, 0x00, 0x00, 0x00, 0x00, 0xca, 0x66, 0x5b, 0xbe,
  0xf0, 0x1e, 0xb6, 0xbd, 0x00, 0x00, 0x00, 0x00, 0xf6, 0xfe, 0xff, 0xff,
  0x04, 0x00, 0x00, 0x00, 0x3c, 0x00, 0x00, 0x00, 0xa2, 0x7b, 0x95, 0x3c,
  0x1a, 0x56, 0x03, 0x3e, 0xe5, 0x63, 0x21, 0x3e, 0x79, 0x4f, 0x97, 0x3e,
  0x00, 0x00, 0x00, 0x00, 0x00, 0x00, 0x00, 0x00, 0xef, 0x0d, 0xaf, 0x3e,
  0x80, 0xea, 0xd5, 0xb7, 0x26, 0x08, 0xed, 0xbc, 0x80, 0x0f, 0x9e, 0xbc,
  0x7b, 0xda, 0x2b, 0xbc, 0xa2, 0x34, 0xc6, 0x3e, 0x00, 0x00, 0x00, 0x00,
  0x00, 0x00, 0x00, 0x00, 0xb6, 0x3a, 0x72, 0xbc, 0x3e, 0xff, 0xff, 0xff,
  0x04, 0x00, 0x00, 0x00, 0x20, 0x00, 0x00, 0x00, 0x3c, 0x86, 0x34, 0xbf,
  0x7a, 0x8c, 0x1c, 0xbf, 0xa6, 0x9a, 0x0b, 0xbf, 0x1d, 0x3f, 0x71, 0xbf,
  0x3b, 0x72, 0x32, 0xbf, 0x8f, 0x55, 0x32, 0xbf, 0x0e, 0xbc, 0x45, 0xbf,
  0xf6, 0x69, 0x2f, 0xbf, 0x20, 0xfa, 0xff, 0xff, 0x24, 0xfa, 0xff, 0xff,
  0x0f, 0x00, 0x00, 0x00, 0x4d, 0x4c, 0x49, 0x52, 0x20, 0x43, 0x6f, 0x6e,
  0x76, 0x65, 0x72, 0x74, 0x65, 0x64, 0x2e, 0x00, 0x01, 0x00, 0x00, 0x00,
  0x14, 0x00, 0x00, 0x00, 0x00, 0x00, 0x0e, 0x00, 0x18, 0x00, 0x14, 0x00,
  0x10, 0x00, 0x0c, 0x00, 0x08, 0x00, 0x04, 0x00, 0x0e, 0x00, 0x00, 0x00,
  0x14, 0x00, 0x00, 0x00, 0x1c, 0x00, 0x00, 0x00, 0x24, 0x01, 0x00, 0x00,
  0x28, 0x01, 0x00, 0x00, 0x2c, 0x01, 0x00, 0x00, 0x04, 0x00, 0x00, 0x00,
  0x6d, 0x61, 0x69, 0x6e, 0x00, 0x00, 0x00, 0x00, 0x04, 0x00, 0x00, 0x00,
  0xcc, 0x00, 0x00, 0x00, 0x84, 0x00, 0x00, 0x00, 0x50, 0x00, 0x00, 0x00,
  0x14, 0x00, 0x00, 0x00, 0x00, 0x00, 0x0e, 0x00, 0x1a, 0x00, 0x14, 0x00,
  0x10, 0x00, 0x0c, 0x00, 0x0b, 0x00, 0x04, 0x00, 0x0e, 0x00, 0x00, 0x00,
  0x1c, 0x00, 0x00, 0x00, 0x00, 0x00, 0x00, 0x09, 0x1c, 0x00, 0x00, 0x00,
  0x20, 0x00, 0x00, 0x00, 0x01, 0x00, 0x00, 0x00, 0x00, 0x00, 0x06, 0x00,
  0x08, 0x00, 0x04, 0x00, 0x06, 0x00, 0x00, 0x00, 0x00, 0x00, 0x80, 0x3f,
  0x01, 0x00, 0x00, 0x00, 0x0a, 0x00, 0x00, 0x00, 0x01, 0x00, 0x00, 0x00,
  0x09, 0x00, 0x00, 0x00, 0x9a, 0xff, 0xff, 0xff, 0x10, 0x00, 0x00, 0x00,
  0x00, 0x00, 0x00, 0x08, 0x0c, 0x00, 0x00, 0x00, 0x10, 0x00, 0x00, 0x00,
  0xe8, 0xfa, 0xff, 0xff, 0x01, 0x00, 0x00, 0x00, 0x09, 0x00, 0x00, 0x00,
  0x03, 0x00, 0x00, 0x00, 0x08, 0x00, 0x00, 0x00, 0x06, 0x00, 0x00, 0x00,
  0x01, 0x00, 0x00, 0x00, 0xca, 0xff, 0xff, 0xff, 0x10, 0x00, 0x00, 0x00,
  0x00, 0x00, 0x00, 0x08, 0x10, 0x00, 0x00, 0x00, 0x14, 0x00, 0x00, 0x00,
  0xba, 0xff, 0xff, 0xff, 0x00, 0x00, 0x00, 0x01, 0x01, 0x00, 0x00, 0x00,
  0x08, 0x00, 0x00, 0x00, 0x03, 0x00, 0x00, 0x00, 0x07, 0x00, 0x00, 0x00,
  0x05, 0x00, 0x00, 0x00, 0x02, 0x00, 0x00, 0x00, 0x00, 0x00, 0x0e, 0x00,
  0x16, 0x00, 0x00, 0x00, 0x10, 0x00, 0x0c, 0x00, 0x0b, 0x00, 0x04, 0x00,
  0x0e, 0x00, 0x00, 0x00, 0x18, 0x00, 0x00, 0x00, 0x00, 0x00, 0x00, 0x08,
  0x18, 0x00, 0x00, 0x00, 0x1c, 0x00, 0x00, 0x00, 0x00, 0x00, 0x06, 0x00,
  0x08, 0x00, 0x07, 0x00, 0x06, 0x00, 0x00, 0x00, 0x00, 0x00, 0x00, 0x01,
  0x01, 0x00, 0x00, 0x00, 0x07, 0x00, 0x00, 0x00, 0x03, 0x00, 0x00, 0x00,
  0x00, 0x00, 0x00, 0x00, 0x04, 0x00, 0x00, 0x00, 0x03, 0x00, 0x00, 0x00,
  0x01, 0x00, 0x00, 0x00, 0x0a, 0x00, 0x00, 0x00, 0x01, 0x00, 0x00, 0x00,
  0x00, 0x00, 0x00, 0x00, 0x0b, 0x00, 0x00, 0x00, 0x40, 0x04, 0x00, 0x00,
  0xcc, 0x03, 0x00, 0x00, 0x58, 0x03, 0x00, 0x00, 0xfc, 0x02, 0x00, 0x00,
  0xac, 0x02, 0x00, 0x00, 0x5c, 0x02, 0x00, 0x00, 0x0c, 0x02, 0x00, 0x00,
  0x74, 0x01, 0x00, 0x00, 0xdc, 0x00, 0x00, 0x00, 0x60, 0x00, 0x00, 0x00,
  0x04, 0x00, 0x00, 0x00, 0x02, 0xfc, 0xff, 0xff, 0x00, 0x00, 0x00, 0x01,
  0x14, 0x00, 0x00, 0x00, 0x1c, 0x00, 0x00, 0x00, 0x1c, 0x00, 0x00, 0x00,
  0x0b, 0x00, 0x00, 0x00, 0x34, 0x00, 0x00, 0x00, 0x02, 0x00, 0x00, 0x00,
  0xff, 0xff, 0xff, 0xff, 0x08, 0x00, 0x00, 0x00, 0xec, 0xfb, 0xff, 0xff,
  0x19, 0x00, 0x00, 0x00, 0x53, 0x74, 0x61, 0x74, 0x65, 0x66, 0x75, 0x6c,
  0x50, 0x61, 0x72, 0x74, 0x69, 0x74, 0x69, 0x6f, 0x6e, 0x65, 0x64, 0x43,
  0x61, 0x6c, 0x6c, 0x3a, 0x30, 0x00, 0x00, 0x00, 0x02, 0x00, 0x00, 0x00,
  0x01, 0x00, 0x00, 0x00, 0x08, 0x00, 0x00, 0x00, 0x5a, 0xfc, 0xff, 0xff,
  0x00, 0x00, 0x00, 0x01, 0x14, 0x00, 0x00, 0x00, 0x1c, 0x00, 0x00, 0x00,
  0x1c, 0x00, 0x00, 0x00, 0x0a, 0x00, 0x00, 0x00, 0x54, 0x00, 0x00, 0x00,
  0x02, 0x00, 0x00, 0x00, 0xff, 0xff, 0xff, 0xff, 0x08, 0x00, 0x00, 0x00,
  0x44, 0xfc, 0xff, 0xff, 0x3a, 0x00, 0x00, 0x00, 0x73, 0x65, 0x71, 0x75,
  0x65, 0x6e, 0x74, 0x69, 0x61, 0x6c, 0x5f, 0x34, 0x2f, 0x64, 0x65, 0x6e,
  0x73, 0x65, 0x5f, 0x31, 0x34, 0x2f, 0x4d, 0x61, 0x74, 0x4d, 0x75, 0x6c,
  0x3b, 0x73, 0x65, 0x71, 0x75, 0x65, 0x6e, 0x74, 0x69, 0x61, 0x6c, 0x5f,
  0x34, 0x2f, 0x64, 0x65, 0x6e, 0x73, 0x65, 0x5f, 0x31, 0x34, 0x2f, 0x42,
  0x69, 0x61, 0x73, 0x41, 0x64, 0x64, 0x00, 0x00, 0x02, 0x00, 0x00, 0x00,
  0x01, 0x00, 0x00, 0x00, 0x08, 0x00, 0x00, 0x00, 0xd2, 0xfc, 0xff, 0xff,
  0x00, 0x00, 0x00, 0x01, 0x14, 0x00, 0x00, 0x00, 0x1c, 0x00, 0x00, 0x00,
  0x1c, 0x00, 0x00, 0x00, 0x09, 0x00, 0x00, 0x00, 0x70, 0x00, 0x00, 0x00,
  0x02, 0x00, 0x00, 0x00, 0xff, 0xff, 0xff, 0xff, 0x0f, 0x00, 0x00, 0x00,
  0xbc, 0xfc, 0xff, 0xff, 0x55, 0x00, 0x00, 0x00, 0x73, 0x65, 0x71, 0x75,
  0x65, 0x6e, 0x74, 0x69, 0x61, 0x6c, 0x5f, 0x34, 0x2f, 0x64, 0x65, 0x6e,
  0x73, 0x65, 0x5f, 0x31, 0x33, 0x2f, 0x4d, 0x61, 0x74, 0x4d, 0x75, 0x6c,
  0x3b, 0x73, 0x65, 0x71, 0x75, 0x65, 0x6e, 0x74, 0x69, 0x61, 0x6c, 0x5f,
  0x34, 0x2f, 0x64, 0x65, 0x6e, 0x73, 0x65, 0x5f, 0x31, 0x33, 0x2f, 0x52,
  0x65, 0x6c, 0x75, 0x3b, 0x73, 0x65, 0x71, 0x75, 0x65, 0x6e, 0x74, 0x69,
  0x61, 0x6c, 0x5f, 0x34, 0x2f, 0x64, 0x65, 0x6e, 0x73, 0x65, 0x5f, 0x31,
  0x33, 0x2f, 0x42, 0x69, 0x61, 0x73, 0x41, 0x64, 0x64, 0x00, 0x00, 0x00,
  0x02, 0x00, 0x00, 0x00, 0x01, 0x00, 0x00, 0x00, 0x0f, 0x00, 0x00, 0x00,
  0x66, 0xfd, 0xff, 0xff, 0x00, 0x00, 0x00, 0x01, 0x14, 0x00, 0x00, 0x00,
  0x1c, 0x00, 0x00, 0x00, 0x1c, 0x00, 0x00, 0x00, 0x08, 0x00, 0x00, 0x00,
  0x70, 0x00, 0x00, 0x00, 0x02, 0x00, 0x00, 0x00, 0xff, 0xff, 0xff, 0xff,
  0x32, 0x00, 0x00, 0x00, 0x50, 0xfd, 0xff, 0xff, 0x55, 0x00, 0x00, 0x00,
  0x73, 0x65, 0x71, 0x75, 0x65, 0x6e, 0x74, 0x69, 0x61, 0x6c, 0x5f, 0x34,
  0x2f, 0x64, 0x65, 0x6e, 0x73, 0x65, 0x5f, 0x31, 0x32, 0x2f, 0x4d, 0x61,
  0x74, 0x4d, 0x75, 0x6c, 0x3b, 0x73, 0x65, 0x71, 0x75, 0x65, 0x6e, 0x74,
  0x69, 0x61, 0x6c, 0x5f, 0x34, 0x2f, 0x64, 0x65, 0x6e, 0x73, 0x65, 0x5f,
  0x31, 0x32, 0x2f, 0x52, 0x65, 0x6c, 0x75, 0x3b, 0x73, 0x65, 0x71, 0x75,
  0x65, 0x6e, 0x74, 0x69, 0x61, 0x6c, 0x5f, 0x34, 0x2f, 0x64, 0x65, 0x6e,
  0x73, 0x65, 0x5f, 0x31, 0x32, 0x2f, 0x42, 0x69, 0x61, 0x73, 0x41, 0x64,
  0x64, 0x00, 0x00, 0x00, 0x02, 0x00, 0x00, 0x00, 0x01, 0x00, 0x00, 0x00,
  0x32, 0x00, 0x00, 0x00, 0x6a, 0xfe, 0xff, 0xff, 0x00, 0x00, 0x00, 0x01,
  0x10, 0x00, 0x00, 0x00, 0x10, 0x00, 0x00, 0x00, 0x07, 0x00, 0x00, 0x00,
  0x2c, 0x00, 0x00, 0x00, 0xd4, 0xfd, 0xff, 0xff, 0x1c, 0x00, 0x00, 0x00,
  0x73, 0x65, 0x71, 0x75, 0x65, 0x6e, 0x74, 0x69, 0x61, 0x6c, 0x5f, 0x34,
  0x2f, 0x64, 0x65, 0x6e, 0x73, 0x65, 0x5f, 0x31, 0x34, 0x2f, 0x4d, 0x61,
  0x74, 0x4d, 0x75, 0x6c, 0x00, 0x00, 0x00, 0x00, 0x02, 0x00, 0x00, 0x00,
  0x08, 0x00, 0x00, 0x00, 0x0f, 0x00, 0x00, 0x00, 0xb6, 0xfe, 0xff, 0xff,
  0x00, 0x00, 0x00, 0x01, 0x10, 0x00, 0x00, 0x00, 0x10, 0x00, 0x00, 0x00,
  0x06, 0x00, 0x00, 0x00, 0x2c, 0x00, 0x00, 0x00, 0x20, 0xfe, 0xff, 0xff,
  0x1c, 0x00, 0x00, 0x00, 0x73, 0x65, 0x71, 0x75, 0x65, 0x6e, 0x74, 0x69,
  0x61, 0x6c, 0x5f, 0x34, 0x2f, 0x64, 0x65, 0x6e, 0x73, 0x65, 0x5f, 0x31,
  0x33, 0x2f, 0x4d, 0x61, 0x74, 0x4d, 0x75, 0x6c, 0x00, 0x00, 0x00, 0x00,
  0x02, 0x00, 0x00, 0x00, 0x0f, 0x00, 0x00, 0x00, 0x32, 0x00, 0x00, 0x00,
  0x02, 0xff, 0xff, 0xff, 0x00, 0x00, 0x00, 0x01, 0x10, 0x00, 0x00, 0x00,
  0x10, 0x00, 0x00, 0x00, 0x05, 0x00, 0x00, 0x00, 0x2c, 0x00, 0x00, 0x00,
  0x6c, 0xfe, 0xff, 0xff, 0x1c, 0x00, 0x00, 0x00, 0x73, 0x65, 0x71, 0x75,
  0x65, 0x6e, 0x74, 0x69, 0x61, 0x6c, 0x5f, 0x34, 0x2f, 0x64, 0x65, 0x6e,
  0x73, 0x65, 0x5f, 0x31, 0x32, 0x2f, 0x4d, 0x61, 0x74, 0x4d, 0x75, 0x6c,
  0x00, 0x00, 0x00, 0x00, 0x02, 0x00, 0x00, 0x00, 0x32, 0x00, 0x00, 0x00,
  0x06, 0x00, 0x00, 0x00, 0x4e, 0xff, 0xff, 0xff, 0x00, 0x00, 0x00, 0x01,
  0x10, 0x00, 0x00, 0x00, 0x10, 0x00, 0x00, 0x00, 0x04, 0x00, 0x00, 0x00,
  0x3c, 0x00, 0x00, 0x00, 0xb8, 0xfe, 0xff, 0xff, 0x2c, 0x00, 0x00, 0x00,
  0x73, 0x65, 0x71, 0x75, 0x65, 0x6e, 0x74, 0x69, 0x61, 0x6c, 0x5f, 0x34,
  0x2f, 0x64, 0x65, 0x6e, 0x73, 0x65, 0x5f, 0x31, 0x32, 0x2f, 0x42, 0x69,
  0x61, 0x73, 0x41, 0x64, 0x64, 0x2f, 0x52, 0x65, 0x61, 0x64, 0x56, 0x61,
  0x72, 0x69, 0x61, 0x62, 0x6c, 0x65, 0x4f, 0x70, 0x00, 0x00, 0x00, 0x00,
  0x01, 0x00, 0x00, 0x00, 0x32, 0x00, 0x00, 0x00, 0xa6, 0xff, 0xff, 0xff,
  0x00, 0x00, 0x00, 0x01, 0x10, 0x00, 0x00, 0x00, 0x10, 0x00, 0x00, 0x00,
  0x03, 0x00, 0x00, 0x00, 0x3c, 0x00, 0x00, 0x00, 0x10, 0xff, 0xff, 0xff,
  0x2c, 0x00, 0x00, 0x00, 0x73, 0x65, 0x71, 0x75, 0x65, 0x6e, 0x74, 0x69,
  0x61, 0x6c, 0x5f, 0x34, 0x2f, 0x64, 0x65, 0x6e, 0x73, 0x65, 0x5f, 0x31,
  0x33, 0x2f, 0x42, 0x69, 0x61, 0x73, 0x41, 0x64, 0x64, 0x2f, 0x52, 0x65,
  0x61, 0x64, 0x56, 0x61, 0x72, 0x69, 0x61, 0x62, 0x6c, 0x65, 0x4f, 0x70,
  0x00, 0x00, 0x00, 0x00, 0x01, 0x00, 0x00, 0x00, 0x0f, 0x00, 0x00, 0x00,
  0x00, 0x00, 0x16, 0x00, 0x18, 0x00, 0x14, 0x00, 0x00, 0x00, 0x10, 0x00,
  0x0c, 0x00, 0x08, 0x00, 0x00, 0x00, 0x00, 0x00, 0x00, 0x00, 0x07, 0x00,
  0x16, 0x00, 0x00, 0x00, 0x00, 0x00, 0x00, 0x01, 0x10, 0x00, 0x00, 0x00,
  0x10, 0x00, 0x00, 0x00, 0x02, 0x00, 0x00, 0x00, 0x3c, 0x00, 0x00, 0x00,
  0x80, 0xff, 0xff, 0xff, 0x2c, 0x00, 0x00, 0x00, 0x73, 0x65, 0x71, 0x75,
  0x65, 0x6e, 0x74, 0x69, 0x61, 0x6c, 0x5f, 0x34, 0x2f, 0x64, 0x65, 0x6e,
  0x73, 0x65, 0x5f, 0x31, 0x34, 0x2f, 0x42, 0x69, 0x61, 0x73, 0x41, 0x64,
  0x64, 0x2f, 0x52, 0x65, 0x61, 0x64, 0x56, 0x61, 0x72, 0x69, 0x61, 0x62,
  0x6c, 0x65, 0x4f, 0x70, 0x00, 0x00, 0x00, 0x00, 0x01, 0x00, 0x00, 0x00,
  0x08, 0x00, 0x00, 0x00, 0x00, 0x00, 0x16, 0x00, 0x1c, 0x00, 0x18, 0x00,
  0x00, 0x00, 0x14, 0x00, 0x10, 0x00, 0x0c, 0x00, 0x00, 0x00, 0x00, 0x00,
  0x08, 0x00, 0x07, 0x00, 0x16, 0x00, 0x00, 0x00, 0x00, 0x00, 0x00, 0x01,
  0x14, 0x00, 0x00, 0x00, 0x20, 0x00, 0x00, 0x00, 0x20, 0x00, 0x00, 0x00,
  0x01, 0x00, 0x00, 0x00, 0x40, 0x00, 0x00, 0x00, 0x02, 0x00, 0x00, 0x00,
  0xff, 0xff, 0xff, 0xff, 0x06, 0x00, 0x00, 0x00, 0x04, 0x00, 0x04, 0x00,
  0x04, 0x00, 0x00, 0x00, 0x20, 0x00, 0x00, 0x00, 0x73, 0x65, 0x72, 0x76,
  0x69, 0x6e, 0x67, 0x5f, 0x64, 0x65, 0x66, 0x61, 0x75, 0x6c, 0x74, 0x5f,
  0x64, 0x65, 0x6e, 0x73, 0x65, 0x5f, 0x31, 0x32, 0x5f, 0x69, 0x6e, 0x70,
  0x75, 0x74, 0x3a, 0x30, 0x00, 0x00, 0x00, 0x00, 0x02, 0x00, 0x00, 0x00,
  0x01, 0x00, 0x00, 0x00, 0x06, 0x00, 0x00, 0x00, 0x02, 0x00, 0x00, 0x00,
  0x20, 0x00, 0x00, 0x00, 0x04, 0x00, 0x00, 0x00, 0xf4, 0xff, 0xff, 0xff,
  0x19, 0x00, 0x00, 0x00, 0x00, 0x00, 0x00, 0x19, 0x0c, 0x00, 0x0c, 0x00,
  0x0b, 0x00, 0x00, 0x00, 0x00, 0x00, 0x04, 0x00, 0x0c, 0x00, 0x00, 0x00,
  0x09, 0x00, 0x00, 0x00, 0x00, 0x00, 0x00, 0x09
};
