const unsigned char model[] = {
  0x1c, 0x00, 0x00, 0x00, 0x54, 0x46, 0x4c, 0x33, 0x14, 0x00, 0x20, 0x00,
  0x1c, 0x00, 0x18, 0x00, 0x14, 0x00, 0x10, 0x00, 0x0c, 0x00, 0x00, 0x00,
  0x08, 0x00, 0x04, 0x00, 0x14, 0x00, 0x00, 0x00, 0x1c, 0x00, 0x00, 0x00,
  0x98, 0x00, 0x00, 0x00, 0xf0, 0x00, 0x00, 0x00, 0x94, 0x2b, 0x00, 0x00,
  0xa4, 0x2b, 0x00, 0x00, 0xa0, 0x31, 0x00, 0x00, 0x03, 0x00, 0x00, 0x00,
  0x01, 0x00, 0x00, 0x00, 0x10, 0x00, 0x00, 0x00, 0x00, 0x00, 0x0a, 0x00,
  0x10, 0x00, 0x0c, 0x00, 0x08, 0x00, 0x04, 0x00, 0x0a, 0x00, 0x00, 0x00,
  0x0c, 0x00, 0x00, 0x00, 0x1c, 0x00, 0x00, 0x00, 0x3c, 0x00, 0x00, 0x00,
  0x0f, 0x00, 0x00, 0x00, 0x73, 0x65, 0x72, 0x76, 0x69, 0x6e, 0x67, 0x5f,
  0x64, 0x65, 0x66, 0x61, 0x75, 0x6c, 0x74, 0x00, 0x01, 0x00, 0x00, 0x00,
  0x04, 0x00, 0x00, 0x00, 0x90, 0xff, 0xff, 0xff, 0x0a, 0x00, 0x00, 0x00,
  0x04, 0x00, 0x00, 0x00, 0x08, 0x00, 0x00, 0x00, 0x64, 0x65, 0x6e, 0x73,
  0x65, 0x5f, 0x33, 0x31, 0x00, 0x00, 0x00, 0x00, 0x01, 0x00, 0x00, 0x00,
  0x04, 0x00, 0x00, 0x00, 0x52, 0xd4, 0xff, 0xff, 0x04, 0x00, 0x00, 0x00,
  0x0e, 0x00, 0x00, 0x00, 0x64, 0x65, 0x6e, 0x73, 0x65, 0x5f, 0x32, 0x39,
  0x5f, 0x69, 0x6e, 0x70, 0x75, 0x74, 0x00, 0x00, 0x02, 0x00, 0x00, 0x00,
  0x34, 0x00, 0x00, 0x00, 0x04, 0x00, 0x00, 0x00, 0xdc, 0xff, 0xff, 0xff,
  0x0d, 0x00, 0x00, 0x00, 0x04, 0x00, 0x00, 0x00, 0x13, 0x00, 0x00, 0x00,
  0x43, 0x4f, 0x4e, 0x56, 0x45, 0x52, 0x53, 0x49, 0x4f, 0x4e, 0x5f, 0x4d,
  0x45, 0x54, 0x41, 0x44, 0x41, 0x54, 0x41, 0x00, 0x08, 0x00, 0x0c, 0x00,
  0x08, 0x00, 0x04, 0x00, 0x08, 0x00, 0x00, 0x00, 0x0c, 0x00, 0x00, 0x00,
  0x04, 0x00, 0x00, 0x00, 0x13, 0x00, 0x00, 0x00, 0x6d, 0x69, 0x6e, 0x5f,
  0x72, 0x75, 0x6e, 0x74, 0x69, 0x6d, 0x65, 0x5f, 0x76, 0x65, 0x72, 0x73,
  0x69, 0x6f, 0x6e, 0x00, 0x0e, 0x00, 0x00, 0x00, 0xa0, 0x2a, 0x00, 0x00,
  0x98, 0x2a, 0x00, 0x00, 0x78, 0x2a, 0x00, 0x00, 0xe8, 0x29, 0x00, 0x00,
  0xd8, 0x28, 0x00, 0x00, 0xc8, 0x22, 0x00, 0x00, 0xb8, 0x02, 0x00, 0x00,
  0xa8, 0x00, 0x00, 0x00, 0xa0, 0x00, 0x00, 0x00, 0x98, 0x00, 0x00, 0x00,
  0x90, 0x00, 0x00, 0x00, 0x88, 0x00, 0x00, 0x00, 0x68, 0x00, 0x00, 0x00,
  0x04, 0x00, 0x00, 0x00, 0x06, 0xd5, 0xff, 0xff, 0x04, 0x00, 0x00, 0x00,
  0x54, 0x00, 0x00, 0x00, 0x0c, 0x00, 0x00, 0x00, 0x08, 0x00, 0x0e, 0x00,
  0x08, 0x00, 0x04, 0x00, 0x08, 0x00, 0x00, 0x00, 0x10, 0x00, 0x00, 0x00,
  0x24, 0x00, 0x00, 0x00, 0x00, 0x00, 0x06, 0x00, 0x08, 0x00, 0x04, 0x00,
  0x06, 0x00, 0x00, 0x00, 0x04, 0x00, 0x00, 0x00, 0x00, 0x00, 0x00, 0x00,
  0x00, 0x00, 0x0a, 0x00, 0x10, 0x00, 0x0c, 0x00, 0x08, 0x00, 0x04, 0x00,
  0x0a, 0x00, 0x00, 0x00, 0x02, 0x00, 0x00, 0x00, 0x02, 0x00, 0x00, 0x00,
  0x04, 0x00, 0x00, 0x00, 0x06, 0x00, 0x00, 0x00, 0x32, 0x2e, 0x31, 0x35,
  0x2e, 0x30, 0x00, 0x00, 0x66, 0xd5, 0xff, 0xff, 0x04, 0x00, 0x00, 0x00,
  0x10, 0x00, 0x00, 0x00, 0x31, 0x2e, 0x35, 0x2e, 0x30, 0x00, 0x00, 0x00,
  0x00, 0x00, 0x00, 0x00, 0x00, 0x00, 0x00, 0x00, 0x38, 0xd0, 0xff, 0xff,
  0x3c, 0xd0, 0xff, 0xff, 0x40, 0xd0, 0xff, 0xff, 0x44, 0xd0, 0xff, 0xff,
  0x92, 0xd5, 0xff, 0xff, 0x04, 0x00, 0x00, 0x00, 0x00, 0x02, 0x00, 0x00,
  0x02, 0xcd, 0xe2, 0xbf, 0x1c, 0x4d, 0x97, 0xbf, 0x5e, 0x83, 0x07, 0xbf,
  0x92, 0x72, 0x86, 0x3e, 0xea, 0x2e, 0x07, 0x3f, 0x7c, 0xb6, 0x8a, 0x3e,
  0xc7, 0x16, 0x74, 0x3f, 0x34, 0x34, 0x86, 0x3f, 0x5d, 0xdc, 0xb6, 0xbe,
  0x1a, 0xc3, 0x6a, 0xbf, 0x88, 0xea, 0xef, 0xbe, 0xc4, 0xae, 0x94, 0x3e,
  0xfc, 0xbe, 0xde, 0x3e, 0x8a, 0x1a, 0xc7, 0x3e, 0x34, 0x20, 0x0e, 0x3f,
  0x08, 0x7f, 0xa1, 0x3e, 0x71, 0x82, 0xb8, 0xbe, 0x03, 0xa0, 0xea, 0xbd,
  0xde, 0xea, 0xfd, 0x3e, 0x9e, 0xaa, 0x31, 0xbf, 0x86, 0x66, 0x57, 0x3f,
  0x12, 0xf6, 0x56, 0xbc, 0x6f, 0x81, 0xb9, 0xbf, 0xb3, 0xf2, 0x01, 0x3d,
  0x69, 0x90, 0x05, 0xbe, 0x26, 0x2e, 0xc2, 0x3e, 0x11, 0xa6, 0x44, 0xbe,
  0x12, 0x3d, 0xd5, 0xbf, 0xeb, 0x8d, 0xf5, 0xbd, 0x94, 0xbc, 0x4a, 0x3e,
  0x77, 0x5f, 0x1a, 0x3f, 0x17, 0x2c, 0x5b, 0xbe, 0xd2, 0x29, 0x36, 0x3f,
  0xd7, 0xc3, 0x86, 0x3f, 0xbd, 0xa1, 0xac, 0xbd, 0x92, 0xe9, 0xbb, 0xbe,
  0xaf, 0xfd, 0x9c, 0xbf, 0xef, 0x74, 0x5b, 0xbf, 0x63, 0xc6, 0x94, 0xbf,
  0x76, 0xba, 0xa8, 0xbf, 0xdc, 0x74, 0xa3, 0xbc, 0x57, 0x8d, 0x5f, 0xbd,
  0xd6, 0xb6, 0x02, 0xbf, 0x6c, 0x2e, 0x3c, 0xbe, 0xe9, 0x05, 0x3f, 0xbf,
  0x80, 0x74, 0x92, 0x3c, 0xa6, 0x5c, 0xb8, 0xbd, 0x5c, 0xe5, 0xd5, 0xbc,
  0xd1, 0x40, 0xad, 0xbe, 0xf3, 0x06, 0xa6, 0x3e, 0x19, 0x4a, 0x92, 0xbf,
  0x94, 0x83, 0x4d, 0x3d, 0xa0, 0xeb, 0x88, 0xbf, 0x0c, 0xe5, 0x0c, 0xbe,
  0x9e, 0xf7, 0x35, 0x3f, 0xc8, 0x61, 0x2a, 0xbe, 0xc6, 0x06, 0x9e, 0xbc,
  0xc0, 0x6a, 0x44, 0x3e, 0x98, 0xae, 0x88, 0xbe, 0x6c, 0x70, 0xa3, 0x3e,
  0x58, 0x77, 0x03, 0x3e, 0x98, 0xfa, 0x86, 0x3d, 0x68, 0xa4, 0xe3, 0xba,
  0x00, 0xa0, 0x8b, 0xbc, 0xdb, 0xfb, 0x0a, 0x3e, 0x9b, 0x63, 0x3e, 0xbf,
  0x3f, 0xd4, 0x86, 0xbf, 0xd8, 0xf2, 0x2a, 0x3e, 0xee, 0xe2, 0xea, 0x3e,
  0x3d, 0xb5, 0x76, 0x3f, 0x26, 0x9c, 0x7c, 0x3f, 0xab, 0x1e, 0x13, 0x3f,
  0x1a, 0xd3, 0xb2, 0x3e, 0x84, 0xc8, 0xe4, 0xbe, 0xa1, 0x5b, 0x74, 0x3f,
  0x47, 0x34, 0x78, 0xbe, 0xb2, 0x01, 0x94, 0xbf, 0xc0, 0xde, 0xfe, 0xbd,
  0xab, 0x94, 0x94, 0x3c, 0xff, 0xff, 0x8a, 0xbe, 0x7c, 0xfd, 0x97, 0x3e,
  0x62, 0x27, 0x42, 0x3c, 0x74, 0x0e, 0x22, 0xbf, 0x5a, 0xf4, 0x2f, 0x3f,
  0x00, 0xf4, 0xf5, 0x3e, 0x8c, 0x39, 0xcc, 0xbe, 0x13, 0x52, 0x11, 0x3f,
  0x5d, 0x36, 0xcc, 0x3e, 0xc1, 0x8e, 0x41, 0xbf, 0x26, 0x8b, 0xb7, 0xbe,
  0xec, 0x53, 0xcc, 0x3e, 0x2f, 0xe2, 0x98, 0xbd, 0x06, 0xa8, 0x91, 0xbf,
  0x2c, 0xdc, 0x6f, 0x3e, 0x67, 0xd8, 0xcf, 0x3e, 0x86, 0x7e, 0xc2, 0x3e,
  0x91, 0x12, 0x0f, 0xbf, 0xd2, 0x2d, 0xbd, 0x3e, 0xf7, 0x26, 0x7a, 0x3f,
  0x89, 0x59, 0x48, 0xbe, 0x03, 0xe2, 0xd6, 0xbe, 0xad, 0x5b, 0xa9, 0xbf,
  0x3e, 0x74, 0x80, 0xbf, 0x8a, 0xe2, 0x25, 0xbf, 0x45, 0x7c, 0x20, 0xbe,
  0x5b, 0x66, 0x2a, 0x3f, 0x0c, 0x38, 0xc8, 0xbf, 0x74, 0x59, 0x9b, 0xbd,
  0xe2, 0x49, 0x3b, 0x3f, 0x0e, 0x2f, 0xbe, 0xbe, 0xef, 0x0b, 0xec, 0xbe,
  0xeb, 0x63, 0x46, 0x3e, 0x0a, 0x81, 0xa9, 0xbe, 0xb1, 0x91, 0xca, 0xbe,
  0x47, 0xa3, 0xaf, 0x3e, 0xef, 0x56, 0x10, 0xc0, 0x79, 0x80, 0xbf, 0x3d,
  0xa8, 0xec, 0x8d, 0x3e, 0x00, 0xe0, 0xd1, 0xbf, 0x28, 0xc3, 0xda, 0xbb,
  0x2c, 0xd6, 0x3f, 0xbd, 0x20, 0x6f, 0x52, 0x3e, 0xdf, 0xff, 0xa4, 0xbe,
  0x97, 0x6f, 0x26, 0x3e, 0xde, 0x1d, 0x28, 0x3f, 0xe0, 0x7e, 0xab, 0x3d,
  0x8e, 0xe0, 0x86, 0xbe, 0x60, 0xde, 0x94, 0x3c, 0x9e, 0xd7, 0xff, 0xff,
  0x04, 0x00, 0x00, 0x00, 0x00, 0x20, 0x00, 0x00, 0x9c, 0x07, 0x95, 0xbe,
  0xe4, 0xd4, 0x27, 0x3e, 0x7c, 0x0d, 0x20, 0xbe, 0x46, 0x1a, 0x04, 0xbb,
  0xee, 0xc0, 0xb1, 0xbe, 0xe0, 0xf0, 0xfc, 0xbd, 0x84, 0x2b, 0x4d, 0xbe,
  0x54, 0x1e, 0x48, 0xbe, 0x9a, 0x1d, 0x15, 0x3f, 0x47, 0x15, 0x29, 0x3e,
  0xb8, 0x93, 0x1b, 0xbd, 0xe0, 0x7c, 0xee, 0xbd, 0x6c, 0x35, 0xe1, 0x3d,
  0x48, 0x51, 0xdf, 0xbd, 0x00, 0x86, 0xd9, 0xbe, 0x4e, 0xce, 0xfb, 0xbe,
  0x7b, 0x4b, 0x13, 0xbf, 0xf3, 0xce, 0xb6, 0x3c, 0x28, 0xa5, 0x49, 0x3e,
  0x1b, 0x38, 0xca, 0xbd, 0xef, 0x34, 0xf1, 0x3e, 0x12, 0x2c, 0x00, 0xbf,
  0x9a, 0xda, 0xb5, 0x3e, 0xe2, 0xc2, 0xb9, 0x3e, 0x48, 0x8a, 0x5a, 0x3e,
  0x14, 0xc3, 0x7c, 0xbe, 0x9a, 0xad, 0xaa, 0xbe, 0xe0, 0xac, 0x05, 0x3d,
  0xc0, 0xa0, 0xd3, 0xbc, 0x2d, 0xc7, 0x30, 0xbe, 0x73, 0x7b, 0x0d, 0xbe,
  0x32, 0xcc, 0x49, 0x3f, 0xdd, 0x19, 0x15, 0x3f, 0x8d, 0x6c, 0x08, 0x3d,
  0x14, 0xf6, 0x65, 0xbe, 0xa4, 0x25, 0x5b, 0x3f, 0x40, 0x2e, 0x3f, 0x3e,
  0x0e, 0x1f, 0xdf, 0xbd, 0xb7, 0x6d, 0x3d, 0x3e, 0xb5, 0x6e, 0x3e, 0xbf,
  0x39, 0xf6, 0x1e, 0xbf, 0xa3, 0xc8, 0x74, 0x3f, 0x8b, 0x02, 0xc4, 0xbd,
  0x00, 0x14, 0xb7, 0x3c, 0x35, 0x39, 0x14, 0x3f, 0x94, 0x26, 0x1f, 0xbe,
  0x42, 0x30, 0x0e, 0x3f, 0x9b, 0xd5, 0x65, 0x3e, 0xef, 0xb1, 0xf8, 0xbc,
  0x2c, 0x1b, 0xed, 0xbd, 0x38, 0xc7, 0x08, 0x3e, 0x9d, 0x64, 0x7c, 0x3e,
  0x10, 0x10, 0x5c, 0xbe, 0x78, 0x41, 0xa2, 0xbd, 0x82, 0xd2, 0x86, 0xbd,
  0x88, 0x51, 0xfc, 0x3d, 0x35, 0xb3, 0x31, 0xbf, 0x90, 0xe6, 0x13, 0x3d,
  0x6c, 0x1e, 0x0d, 0x3f, 0x4c, 0x0d, 0x66, 0x3e, 0x50, 0x59, 0xeb, 0x3d,
  0xc4, 0x91, 0xe7, 0x3e, 0xdb, 0x92, 0x21, 0xbf, 0xc0, 0x69, 0xba, 0xbd,
  0x17, 0x69, 0xc7, 0xbe, 0xbc, 0xac, 0x01, 0x3e, 0x50, 0x18, 0x23, 0xbd,
  0xcf, 0x95, 0x7c, 0x3e, 0xa1, 0x2c, 0xca, 0xbe, 0x60, 0xa3, 0xbd, 0x3d,
  0x64, 0xe6, 0x6a, 0x3e, 0x80, 0x69, 0x76, 0xbd, 0xe5, 0xf0, 0x73, 0x3f,
  0xc1, 0x69, 0x38, 0xbe, 0xa4, 0x60, 0x0d, 0x3e, 0x80, 0xa6, 0xdc, 0x3b,
  0x87, 0xd7, 0x19, 0x3e, 0xd4, 0xf5, 0x15, 0x3e, 0x4f, 0x88, 0x21, 0x3e,
  0x87, 0xd4, 0x61, 0xbf, 0x67, 0x22, 0x0a, 0xbf, 0x9a, 0x0d, 0x20, 0xbe,
  0xd7, 0x6b, 0x9d, 0xbe, 0x1d, 0xc9, 0x54, 0x3c, 0x7e, 0x67, 0x07, 0x3f,
  0xc9, 0x63, 0x28, 0xbf, 0x6a, 0xdb, 0xe8, 0x3e, 0x58, 0x3c, 0xa5, 0x3e,
  0x50, 0x3e, 0x37, 0x3d, 0x20, 0xe6, 0xe6, 0xbc, 0x3b, 0x0c, 0x8b, 0xbd,
  0x80, 0x75, 0x56, 0xbd, 0x60, 0x2f, 0xf5, 0x3c, 0x01, 0xa3, 0xac, 0x3d,
  0x21, 0xa3, 0x25, 0xbf, 0x9c, 0xce, 0x55, 0x3f, 0x26, 0x7e, 0x4e, 0x3f,
  0x1c, 0x33, 0xce, 0xbd, 0x5c, 0x01, 0xca, 0xbe, 0x91, 0xde, 0x06, 0x3f,
  0x8e, 0x1b, 0x07, 0xbe, 0xb7, 0xb2, 0x87, 0xbe, 0x44, 0xc2, 0x65, 0x3e,
  0xee, 0x61, 0x0e, 0xbf, 0x47, 0x28, 0x58, 0x3e, 0xe8, 0xe1, 0xe1, 0x3e,
  0xfd, 0xa0, 0x9d, 0xbe, 0x90, 0x25, 0x4c, 0x3d, 0x5b, 0x3f, 0x93, 0x3e,
  0xe0, 0x24, 0x7b, 0x3d, 0xc7, 0x04, 0xc2, 0xbe, 0x21, 0xaf, 0x95, 0x3d,
  0x7b, 0x7b, 0xbf, 0xba, 0x51, 0xe2, 0x98, 0xbe, 0x68, 0xa9, 0x86, 0x3d,
  0xec, 0x74, 0x89, 0x3e, 0x7b, 0xa9, 0x0e, 0x3e, 0xd0, 0xcd, 0x5e, 0x3e,
  0x72, 0x11, 0x4c, 0xbe, 0x60, 0x64, 0x1b, 0xbd, 0x30, 0x75, 0x1e, 0x3e,
  0x70, 0xd3, 0x15, 0xbd, 0xd6, 0xae, 0x9f, 0xbc, 0xcc, 0xe1, 0x6c, 0x3e,
  0x30, 0xf5, 0x4c, 0xbe, 0xc8, 0xde, 0x07, 0xbe, 0xb2, 0x44, 0xcc, 0xbe,
  0xcc, 0xab, 0x0d, 0x3e, 0xa1, 0x59, 0x62, 0xbe, 0xc0, 0x12, 0x35, 0x3c,
  0xc8, 0x62, 0xad, 0xbd, 0x81, 0x9a, 0xec, 0x3d, 0xf4, 0x39, 0xfa, 0xbd,
  0x80, 0xcd, 0x0e, 0x3c, 0x90, 0x47, 0x2c, 0xbd, 0xf0, 0xc2, 0x33, 0xbd,
  0xef, 0xfb, 0x18, 0x3f, 0x68, 0x17, 0x94, 0xbd, 0xf1, 0x22, 0x81, 0x3d,
  0xec, 0x1f, 0x0d, 0x3e, 0x65, 0x77, 0x32, 0xbe, 0xd0, 0xeb, 0x1f, 0xbe,
  0x60, 0x26, 0x4d, 0x3e, 0xad, 0x34, 0xfe, 0xbe, 0xd4, 0x61, 0x10, 0xbe,
  0x24, 0x06, 0x4f, 0xbe, 0xfe, 0xca, 0xb9, 0xbe, 0x80, 0xca, 0xe8, 0x3d,
  0x28, 0x54, 0x71, 0x3e, 0xb4, 0x19, 0x87, 0x3d, 0x2d, 0x57, 0x1d, 0xbd,
  0x5b, 0xd6, 0xf3, 0x3d, 0x18, 0x7a, 0x70, 0xbe, 0x40, 0x64, 0x29, 0xbe,
  0xba, 0x10, 0xf6, 0xbc, 0x44, 0x12, 0x79, 0xbe, 0x10, 0x4c, 0x52, 0x3e,
  0xe6, 0x0f, 0x0f, 0x3e, 0x8b, 0x56, 0x33, 0xbf, 0x60, 0xc2, 0xd0, 0x3e,
  0xc7, 0xe4, 0x87, 0x3e, 0xa2, 0x0f, 0xc9, 0xbe, 0x69, 0xa2, 0x9f, 0x3e,
  0x8b, 0x12, 0xd5, 0x3e, 0xf7, 0x4f, 0x92, 0xbd, 0x74, 0x39, 0xda, 0xbe,
  0xac, 0x08, 0xd9, 0x3d, 0x06, 0x4a, 0xd6, 0x3d, 0x56, 0xdb, 0xe2, 0x3e,
  0xcc, 0x4e, 0x48, 0x3d, 0xf2, 0x72, 0x68, 0xbf, 0xfc, 0xd4, 0x0c, 0x3e,
  0x58, 0xb1, 0x39, 0x3d, 0xc4, 0xfa, 0x31, 0xbe, 0x26, 0x0a, 0x5d, 0xbf,
  0xc9, 0x85, 0x18, 0xbe, 0x20, 0x7c, 0x18, 0xbe, 0x19, 0xc5, 0x79, 0x3d,
  0xa8, 0xf2, 0x4c, 0xbe, 0xdf, 0xb2, 0xe8, 0x3e, 0xed, 0x14, 0x82, 0x3e,
  0xf8, 0x38, 0x66, 0x3e, 0x38, 0x43, 0xa1, 0xbd, 0x60, 0x40, 0x3d, 0xbe,
  0x84, 0xd1, 0x7b, 0x3d, 0x0c, 0x0a, 0x5f, 0x3e, 0xb0, 0x06, 0x63, 0xbe,
  0x18, 0x4c, 0xcc, 0xbd, 0x10, 0x4c, 0x74, 0x3e, 0xc1, 0x19, 0xff, 0xbe,
  0x49, 0x58, 0x46, 0x3c, 0xf0, 0xed, 0x23, 0xbe, 0xb8, 0xf5, 0xc8, 0xbd,
  0x00, 0x8d, 0x3b, 0x3b, 0xb0, 0x33, 0x3b, 0x3e, 0x14, 0xf2, 0x4b, 0xbe,
  0x80, 0x16, 0x96, 0x3d, 0x00, 0xb5, 0xf9, 0x3b, 0x00, 0xa6, 0xa7, 0xbb,
  0x58, 0x15, 0x73, 0x3e, 0x60, 0xd4, 0x61, 0x3e, 0x0c, 0xeb, 0x38, 0x3e,
  0x40, 0x95, 0x1b, 0x3c, 0xf0, 0x58, 0x23, 0x3d, 0xc4, 0xcc, 0x60, 0x3e,
  0x00, 0xdd, 0xf4, 0x3b, 0x7c, 0x00, 0x00, 0xbe, 0xac, 0x4b, 0x73, 0xbe,
  0x04, 0x72, 0x09, 0xbe, 0xe4, 0x7b, 0x77, 0xbe, 0x70, 0x10, 0x8c, 0x3d,
  0xb8, 0xb0, 0x0d, 0xbe, 0x90, 0xda, 0xe9, 0xbd, 0x80, 0x06, 0x87, 0x3c,
  0x08, 0x52, 0xa0, 0x3d, 0x7c, 0xe8, 0x7f, 0xbe, 0x80, 0xf5, 0xec, 0xbd,
  0x28, 0xc0, 0x6c, 0x3e, 0xe0, 0x00, 0x02, 0xbe, 0x40, 0x96, 0xe0, 0x3d,
  0x40, 0xeb, 0x3f, 0x3c, 0x3c, 0x93, 0x79, 0xbe, 0xc0, 0x9a, 0x34, 0x3e,
  0x54, 0x2e, 0x42, 0xbe, 0x80, 0x21, 0xfb, 0xbb, 0x00, 0x2d, 0x35, 0x3e,
  0x58, 0x18, 0x0d, 0x3e, 0x6c, 0xa9, 0x4e, 0x3e, 0x4c, 0x0b, 0x00, 0xbe,
  0x00, 0x20, 0xbb, 0xba, 0x40, 0xbe, 0x38, 0x3e, 0xb8, 0x7a, 0x8d, 0x3d,
  0xdc, 0x4d, 0x12, 0xbe, 0x20, 0x0e, 0xc7, 0x3c, 0xd4, 0x49, 0x21, 0xbe,
  0xc0, 0xc6, 0x89, 0x3d, 0x0c, 0x41, 0x50, 0xbe, 0xc0, 0xe7, 0x3b, 0x3d,
  0xbc, 0x13, 0x4a, 0xbe, 0x70, 0x92, 0xef, 0xbd, 0x00, 0xc0, 0x2c, 0x38,
  0x00, 0xf3, 0x76, 0xbc, 0x80, 0x51, 0x21, 0x3d, 0x64, 0x33, 0x32, 0x3e,
  0x18, 0x0c, 0x16, 0x3e, 0x20, 0x11, 0x83, 0xbd, 0xd8, 0x4b, 0x9f, 0x3d,
  0x68, 0x32, 0x89, 0x3d, 0x60, 0x94, 0x23, 0xbe, 0xf0, 0xe1, 0x4e, 0xbe,
  0x04, 0x13, 0x4d, 0xbe, 0xc0, 0xa8, 0xa8, 0xbd, 0x60, 0x72, 0xe1, 0x3d,
  0x74, 0xc9, 0x3b, 0x3e, 0x1c, 0x59, 0x2d, 0xbe, 0xc0, 0x76, 0xa9, 0x3c,
  0x2b, 0x58, 0x17, 0x3f, 0x84, 0x7b, 0x08, 0x3e, 0x20, 0xab, 0x54, 0x3e,
  0xbd, 0x56, 0x71, 0x3e, 0xce, 0xaa, 0xc0, 0x3e, 0xd0, 0x6d, 0x6e, 0xbd,
  0xb0, 0x76, 0x75, 0xbe, 0x58, 0x40, 0x68, 0x3e, 0xd1, 0x2e, 0x02, 0xbf,
  0xb7, 0xa2, 0x08, 0x3e, 0x2f, 0x7f, 0x24, 0x3e, 0x2c, 0x84, 0x3f, 0x3e,
  0x28, 0x4f, 0xd3, 0x3d, 0x00, 0x48, 0x59, 0x3d, 0xb3, 0x1d, 0xe8, 0xbd,
  0x39, 0x8f, 0x85, 0x3f, 0x26, 0xd9, 0x72, 0x3f, 0x6e, 0x9b, 0xf2, 0x3d,
  0x1e, 0xbe, 0x90, 0x3e, 0xd8, 0xd1, 0xc0, 0x3d, 0xa7, 0x1c, 0xbc, 0xbe,
  0x52, 0x13, 0x4a, 0x3f, 0xe0, 0x7e, 0xf2, 0xbd, 0xd7, 0xa8, 0x18, 0xbe,
  0x60, 0x10, 0x19, 0xbd, 0x30, 0x2d, 0x1f, 0x3e, 0x19, 0x34, 0x29, 0x3e,
  0x7c, 0x3b, 0x04, 0x3e, 0xe8, 0xcd, 0x9c, 0x3d, 0xe1, 0xe6, 0x33, 0x3e,
  0xd1, 0xba, 0x34, 0x3f, 0x66, 0xf5, 0x81, 0xbe, 0x3f, 0x77, 0x03, 0xbf,
  0xfa, 0xa0, 0xb1, 0xbb, 0x7b, 0x5b, 0xf7, 0x3e, 0x36, 0xbd, 0xeb, 0xbe,
  0x4f, 0x0c, 0xc7, 0xbd, 0xbe, 0xd7, 0xf1, 0x3e, 0x39, 0xdd, 0x17, 0xbd,
  0x0c, 0x1a, 0xd6, 0x3e, 0x94, 0xa3, 0x38, 0x3e, 0xdd, 0xfd, 0xbc, 0x3b,
  0xbc, 0x6f, 0xfd, 0x3e, 0x28, 0x11, 0x5a, 0x3e, 0x77, 0x61, 0x15, 0x3e,
  0xc8, 0x92, 0x64, 0x3e, 0x08, 0x13, 0x8f, 0x3e, 0xd0, 0x64, 0xdb, 0x3d,
  0x82, 0xb7, 0x87, 0x3d, 0xc3, 0x81, 0x06, 0xbc, 0xf8, 0xcf, 0xcf, 0xbd,
  0x0e, 0x9f, 0x33, 0xbe, 0x05, 0x9a, 0x2c, 0x3d, 0xf0, 0x42, 0xb0, 0xbd,
  0xd0, 0xa9, 0xd9, 0x3c, 0xd4, 0x0d, 0x2f, 0xbe, 0x41, 0xd7, 0x1e, 0xbe,
  0xa0, 0x11, 0x01, 0xbd, 0xc2, 0x63, 0xba, 0xbc, 0x44, 0x37, 0x1b, 0xbe,
  0xb8, 0xe3, 0x35, 0xbe, 0x36, 0xbb, 0xe7, 0x3d, 0x81, 0x98, 0x31, 0x3f,
  0x60, 0x2a, 0x07, 0x3e, 0x69, 0x30, 0x23, 0x3e, 0xb0, 0x49, 0xc1, 0xbd,
  0x10, 0xdf, 0x05, 0x3e, 0x1e, 0xe7, 0xc4, 0xbd, 0x60, 0xb3, 0x19, 0x3f,
  0xac, 0x24, 0x39, 0x3e, 0x80, 0x93, 0x8d, 0xbc, 0x3c, 0x6e, 0x62, 0x3e,
  0x4c, 0x26, 0x21, 0xbf, 0x48, 0xf7, 0xe4, 0xbd, 0x82, 0x60, 0x83, 0x3e,
  0x30, 0x8c, 0xc0, 0x3d, 0x3d, 0xf8, 0x25, 0x3e, 0x80, 0xed, 0x21, 0xbc,
  0x4c, 0x36, 0x80, 0xbd, 0xe1, 0xd9, 0x6f, 0x3f, 0xe9, 0x3f, 0xe7, 0x3e,
  0x6e, 0xbe, 0x30, 0x3e, 0x70, 0xe6, 0x54, 0x3e, 0x0c, 0x45, 0x04, 0x3e,
  0x44, 0x44, 0xdf, 0x3d, 0x5a, 0xb8, 0x88, 0x3e, 0x5e, 0x21, 0x60, 0xbc,
  0xcc, 0xb6, 0x09, 0xbe, 0x88, 0x90, 0xad, 0x3d, 0x70, 0x60, 0x8e, 0xbd,
  0x67, 0x8e, 0x18, 0x3e, 0xbc, 0xf2, 0x0c, 0xbe, 0x00, 0xaf, 0x4c, 0x3d,
  0xbf, 0x2d, 0x45, 0xbd, 0xba, 0x73, 0x1d, 0x3f, 0x16, 0x7f, 0x1a, 0xbf,
  0x3c, 0x85, 0xec, 0xbe, 0xe4, 0x6f, 0x33, 0x3e, 0x11, 0xc6, 0x64, 0x3e,
  0x7f, 0xa3, 0xf1, 0x3d, 0x53, 0xd8, 0xc1, 0x3e, 0x17, 0x56, 0x97, 0x3e,
  0xd1, 0xb1, 0x3e, 0x3e, 0x94, 0x06, 0x47, 0xbb, 0xd8, 0xbc, 0xd9, 0xbe,
  0x34, 0x7d, 0x68, 0x3d, 0xdd, 0x3b, 0xf3, 0x3e, 0xe4, 0xc6, 0x57, 0x3e,
  0x21, 0x77, 0x2a, 0x3e, 0x9c, 0xa2, 0x66, 0xbe, 0xc7, 0x38, 0xc2, 0x3e,
  0xe9, 0x77, 0x77, 0xbe, 0xe9, 0xf1, 0x36, 0xbe, 0xc6, 0xff, 0x12, 0x3e,
  0x10, 0xe6, 0x5c, 0xbe, 0x9b, 0x9a, 0x2b, 0x3e, 0xa6, 0xc0, 0x5d, 0xbe,
  0x28, 0xa6, 0x35, 0xbe, 0x94, 0x3e, 0x62, 0x3e, 0xc0, 0x80, 0x34, 0xbc,
  0x68, 0x76, 0xfe, 0xbe, 0xb8, 0xc9, 0xbe, 0xbd, 0x8b, 0xf8, 0xdb, 0x3d,
  0xa0, 0xbe, 0x4a, 0x3d, 0x4c, 0x64, 0x42, 0x3e, 0xeb, 0xf9, 0x4a, 0x3e,
  0x9a, 0xb8, 0x90, 0x3e, 0x70, 0x55, 0xc3, 0xbd, 0x8a, 0x61, 0x1d, 0x3f,
  0x34, 0x64, 0x76, 0x3e, 0x50, 0x74, 0x04, 0x3e, 0xaa, 0xcc, 0x7f, 0xbd,
  0xff, 0x19, 0xde, 0x3e, 0x80, 0xe2, 0x46, 0xbe, 0xe0, 0xe8, 0x36, 0xbd,
  0xd8, 0x89, 0x3f, 0x3e, 0x4a, 0xd1, 0x4a, 0xbf, 0x3c, 0x60, 0xf2, 0xbd,
  0x99, 0x7c, 0x85, 0x3e, 0x0c, 0x70, 0x7b, 0x3e, 0xb3, 0x52, 0x2b, 0x3e,
  0xb0, 0xef, 0x6b, 0xbd, 0xf0, 0x6a, 0x40, 0xbc, 0x1c, 0xcd, 0x56, 0x3f,
  0xf2, 0xbf, 0x4b, 0x3f, 0x0b, 0x83, 0xde, 0x3e, 0x9e, 0x14, 0xd5, 0x3e,
  0xa3, 0x5f, 0x45, 0x3e, 0xe3, 0x85, 0xab, 0xbe, 0xfb, 0x10, 0xf9, 0x3e,
  0xc3, 0xbc, 0x87, 0xbe, 0x38, 0x04, 0xb1, 0xbe, 0x10, 0x46, 0x41, 0x3e,
  0x5c, 0x46, 0x20, 0xbe, 0x78, 0xc5, 0xa7, 0x3e, 0xe8, 0x29, 0x40, 0x3e,
  0x38, 0x50, 0x43, 0x3e, 0x5a, 0x97, 0x70, 0xbe, 0xd8, 0x05, 0x47, 0x3f,
  0xd1, 0x1d, 0x0c, 0xbf, 0x17, 0x8a, 0x1a, 0xbf, 0xec, 0x9d, 0xe2, 0x3e,
  0xe3, 0x3c, 0xcf, 0x3e, 0x91, 0x26, 0xfd, 0xbe, 0x23, 0xf5, 0xdd, 0x3e,
  0x15, 0x14, 0x07, 0x3f, 0x52, 0x2a, 0x52, 0x3e, 0xc2, 0x43, 0xf0, 0x3e,
  0x84, 0x4d, 0x11, 0xbf, 0xae, 0x93, 0x01, 0x3e, 0x11, 0xc0, 0x12, 0x3f,
  0x3c, 0xf6, 0x05, 0x3e, 0x13, 0xf5, 0x4c, 0x3e, 0x70, 0xea, 0xab, 0xbd,
  0x25, 0x7c, 0xf6, 0x3e, 0x78, 0xb9, 0x82, 0xbe, 0xc8, 0x2a, 0x75, 0x3e,
  0x4f, 0xc5, 0x13, 0x3e, 0xec, 0xd0, 0x31, 0x3e, 0x64, 0x88, 0x1c, 0xbe,
  0x7a, 0xce, 0xb9, 0x3d, 0xb8, 0x45, 0x8c, 0xbd, 0x14, 0xb8, 0x08, 0x3e,
  0x18, 0x0a, 0xa0, 0x3d, 0xea, 0xc5, 0x88, 0xbe, 0x88, 0x8d, 0xa8, 0x3d,
  0x21, 0xb5, 0x41, 0x3e, 0xd8, 0x59, 0x70, 0x3e, 0xdc, 0x1a, 0x05, 0xbe,
  0x98, 0x78, 0x72, 0x3e, 0xd8, 0xdc, 0x15, 0x3f, 0xd0, 0x6f, 0x89, 0x3d,
  0xae, 0x50, 0xe5, 0x3e, 0xf0, 0x0b, 0x2d, 0xbe, 0xb8, 0x36, 0x70, 0x3e,
  0x89, 0x68, 0x50, 0x3e, 0x5f, 0xc9, 0xe0, 0x3e, 0xb0, 0x0e, 0x0f, 0xbe,
  0xbc, 0x45, 0x22, 0xbe, 0xd0, 0x96, 0x5f, 0xbd, 0xbc, 0x69, 0x28, 0xbf,
  0xe2, 0xe5, 0x58, 0xbe, 0x45, 0x33, 0x14, 0x3e, 0xc0, 0x76, 0x3d, 0x3c,
  0xf0, 0x0a, 0x3d, 0xbd, 0x68, 0x1c, 0xd1, 0xbd, 0xdc, 0x05, 0xb3, 0x3d,
  0x46, 0xe3, 0x31, 0x3f, 0xdb, 0x84, 0x2c, 0x3f, 0xf3, 0xf9, 0x19, 0x3f,
  0x94, 0x29, 0x9a, 0x3e, 0x76, 0xfb, 0x54, 0xbe, 0xb5, 0x1e, 0x95, 0xbe,
  0xb3, 0xa0, 0xca, 0x3e, 0x42, 0x67, 0xb1, 0xbe, 0x14, 0xd5, 0x11, 0x3d,
  0xd8, 0xd8, 0x38, 0xbe, 0x30, 0xd2, 0x6e, 0x3e, 0x15, 0x54, 0xec, 0x3c,
  0x50, 0x26, 0x76, 0x3d, 0xe4, 0xcd, 0x44, 0x3e, 0x7e, 0xf9, 0x3e, 0x3e,
  0x06, 0x33, 0x06, 0x3f, 0x06, 0x3c, 0x97, 0xbe, 0x9b, 0xcf, 0x06, 0xbf,
  0xb6, 0x77, 0xc6, 0x3e, 0xed, 0xb9, 0x55, 0x3e, 0x7e, 0xa0, 0xd9, 0xbe,
  0x19, 0x2e, 0xbe, 0x3e, 0xef, 0x93, 0x9e, 0x3e, 0x40, 0x92, 0x53, 0x3d,
  0xc4, 0x7c, 0xff, 0x3e, 0x73, 0x20, 0xc0, 0x3d, 0x58, 0xc9, 0x3d, 0xbe,
  0x28, 0xd3, 0x36, 0x3f, 0x20, 0xae, 0x83, 0xbd, 0xa1, 0x4b, 0xb9, 0x3d,
  0xd0, 0x2d, 0x92, 0x3d, 0xa5, 0x82, 0x75, 0x3e, 0x80, 0xd6, 0x46, 0xbe,
  0xe0, 0xab, 0x59, 0x3e, 0xe4, 0x9a, 0x25, 0x3e, 0x70, 0x50, 0xff, 0xbd,
  0x6f, 0x3c, 0x21, 0xbe, 0x5c, 0x02, 0x34, 0x3d, 0x70, 0x73, 0xff, 0xbd,
  0x75, 0x3e, 0xd4, 0x3d, 0xd8, 0x55, 0x33, 0x3e, 0x2b, 0x33, 0xa7, 0x3c,
  0x08, 0x3f, 0xe8, 0xbd, 0x52, 0x3e, 0x31, 0xbe, 0xa0, 0x84, 0x23, 0xbd,
  0x00, 0x75, 0xb0, 0xbd, 0xdb, 0x15, 0x85, 0x3e, 0x83, 0x57, 0x08, 0x3f,
  0x80, 0xbd, 0x0c, 0xbd, 0x64, 0x9a, 0x32, 0x3e, 0x60, 0x75, 0xb3, 0x3c,
  0x98, 0xfb, 0xae, 0xbd, 0x1a, 0x57, 0x0b, 0xbe, 0xcf, 0x67, 0x6c, 0xbe,
  0xb0, 0x4d, 0xa5, 0x3d, 0xe0, 0x74, 0x26, 0x3d, 0x70, 0x4b, 0x8b, 0x3d,
  0x40, 0x87, 0xc1, 0xbc, 0x57, 0x9b, 0x4a, 0xbe, 0xe0, 0xd5, 0x0c, 0xbd,
  0xf0, 0x7d, 0x0f, 0x3e, 0xa0, 0x0d, 0xcc, 0xbc, 0x34, 0x0f, 0x4d, 0x3e,
  0xb1, 0xbd, 0xa4, 0xbd, 0x4d, 0x38, 0x04, 0x3e, 0x84, 0x4c, 0x47, 0x3e,
  0x9a, 0x53, 0xfb, 0xbd, 0x01, 0xfd, 0xd7, 0xbd, 0xb0, 0x5a, 0xc9, 0xbd,
  0xd9, 0xc0, 0xd4, 0xbc, 0xdc, 0x3a, 0x76, 0xbe, 0x30, 0x90, 0x12, 0x3e,
  0x00, 0x7a, 0x41, 0xbd, 0xa0, 0xf9, 0xd8, 0x3d, 0x80, 0xe5, 0xab, 0xbc,
  0x5a, 0xe8, 0x1f, 0x3d, 0x68, 0x4e, 0x64, 0xbe, 0x88, 0xe2, 0x5c, 0xbe,
  0x27, 0x9f, 0xe7, 0x3d, 0x78, 0x96, 0x85, 0x3d, 0x23, 0x68, 0xb3, 0xbc,
  0x82, 0x3a, 0x05, 0xbd, 0x02, 0x57, 0x1e, 0x3e, 0xd5, 0x97, 0x4d, 0x3e,
  0xa5, 0xc9, 0xc6, 0x3b, 0xbe, 0xba, 0xf6, 0xbd, 0xbe, 0x2d, 0xff, 0xbd,
  0xd7, 0x73, 0xca, 0xbd, 0x47, 0x04, 0xc1, 0x3d, 0x2e, 0x73, 0x34, 0x3e,
  0x3b, 0xab, 0xca, 0x3d, 0xfd, 0x82, 0xdf, 0x3d, 0x50, 0xae, 0x79, 0xbe,
  0x19, 0xcf, 0xf4, 0xbd, 0x40, 0xb9, 0x02, 0xbd, 0xc5, 0xef, 0x45, 0x3d,
  0x11, 0x2d, 0xf6, 0xbd, 0x66, 0x1c, 0x48, 0x3e, 0x84, 0x76, 0x09, 0xbe,
  0x08, 0xb9, 0xfb, 0x3d, 0x44, 0xac, 0x0f, 0xbd, 0xa8, 0xb0, 0x3c, 0x3e,
  0xe0, 0x1c, 0x65, 0xbe, 0xec, 0xfb, 0x6a, 0x3e, 0x28, 0x6b, 0x37, 0xbe,
  0xf7, 0x27, 0xea, 0xbd, 0xd8, 0x31, 0x4d, 0xbe, 0x39, 0x1e, 0x05, 0xbe,
  0x60, 0x56, 0x1c, 0x3e, 0xc0, 0x14, 0x68, 0x3d, 0x69, 0x8f, 0x4c, 0xbe,
  0xc9, 0x00, 0x33, 0x3e, 0xd0, 0x3a, 0x03, 0x3d, 0xd9, 0xf5, 0xbc, 0xbe,
  0xf4, 0xc7, 0x31, 0xbe, 0xfc, 0x7d, 0x30, 0xbe, 0xa0, 0x6b, 0xb5, 0x3d,
  0xc4, 0xe4, 0xf5, 0xbb, 0x18, 0x6c, 0x13, 0x3e, 0x60, 0x62, 0x99, 0x3c,
  0xdc, 0x87, 0x33, 0x3e, 0xcc, 0xa2, 0x3a, 0x3e, 0x80, 0x2d, 0xfb, 0x3d,
  0xb3, 0xd4, 0x73, 0x3e, 0x4c, 0x5f, 0x28, 0xbe, 0x60, 0x84, 0x09, 0xbd,
  0x60, 0xac, 0x9e, 0x3d, 0x69, 0xdc, 0x75, 0x3d, 0x76, 0x82, 0x09, 0xbf,
  0x58, 0x37, 0x62, 0xbb, 0xa2, 0x84, 0xac, 0xbe, 0xa8, 0x11, 0xac, 0xbc,
  0xd6, 0x89, 0x65, 0x3d, 0xb3, 0x39, 0xa7, 0x3e, 0xb3, 0x26, 0x05, 0xbe,
  0x40, 0x40, 0x1f, 0xbe, 0x0d, 0x1c, 0x1f, 0x3e, 0x70, 0xdd, 0x7d, 0xbe,
  0x80, 0x2b, 0x9c, 0x3d, 0x1d, 0x8e, 0xd4, 0x3d, 0xf4, 0xdd, 0x6f, 0x3e,
  0xbc, 0x61, 0x1e, 0x3e, 0x04, 0x7c, 0x4e, 0xbe, 0x5a, 0x34, 0xb3, 0xbe,
  0xa5, 0xd2, 0x5b, 0x3c, 0xc6, 0x8f, 0xa4, 0x3d, 0x9e, 0x7d, 0xee, 0xbd,
  0x21, 0x58, 0x61, 0x3e, 0x84, 0xcc, 0xb7, 0x3e, 0xe2, 0x3b, 0x7e, 0xbd,
  0x7f, 0xff, 0x1f, 0xbe, 0x18, 0x93, 0xc7, 0x3d, 0xf5, 0x59, 0x7a, 0xbe,
  0x63, 0x0a, 0x8b, 0x3e, 0x37, 0x32, 0x8d, 0x3c, 0x3d, 0xcc, 0xf8, 0xbe,
  0x50, 0xe6, 0x66, 0x3e, 0xb9, 0x1f, 0x02, 0xbe, 0x88, 0xac, 0x34, 0xbe,
  0x43, 0x5f, 0xdf, 0xbd, 0x83, 0x75, 0x06, 0xbe, 0xa9, 0xcc, 0x48, 0xbe,
  0xce, 0x3b, 0x94, 0xbe, 0x40, 0x38, 0x0a, 0x3d, 0x96, 0xfb, 0x55, 0x3e,
  0xed, 0xe4, 0x59, 0x3e, 0x90, 0x26, 0x63, 0xbe, 0xf0, 0x2b, 0xf5, 0xbd,
  0x40, 0xab, 0x2a, 0x3e, 0xd1, 0x49, 0xec, 0x3d, 0x1c, 0x20, 0x57, 0xbe,
  0x0b, 0x8c, 0x9a, 0xbe, 0x70, 0xd3, 0x5e, 0xbd, 0xc4, 0x56, 0x5b, 0x3e,
  0x54, 0x44, 0xad, 0xbe, 0x3c, 0x9a, 0x4b, 0x3d, 0x20, 0x3a, 0xcd, 0xbd,
  0x76, 0x09, 0x13, 0x3d, 0xf8, 0x99, 0x79, 0x3e, 0x88, 0xc9, 0xdb, 0xbd,
  0x9c, 0x91, 0x85, 0x3e, 0x8b, 0x5b, 0x04, 0x3f, 0xac, 0xbd, 0x68, 0xbe,
  0x9c, 0xf9, 0x50, 0xbe, 0x80, 0xce, 0xde, 0xbb, 0x35, 0xa8, 0xf7, 0xbd,
  0xd9, 0x98, 0x3d, 0x3e, 0x0a, 0x4a, 0x88, 0x3d, 0xe8, 0xcc, 0x6a, 0x3e,
  0x15, 0xdc, 0x62, 0x3e, 0xcc, 0x37, 0x56, 0x3e, 0x70, 0x51, 0xc8, 0xbe,
  0xea, 0xb1, 0x3c, 0x3f, 0x95, 0x6f, 0x16, 0x3f, 0x86, 0x0f, 0x13, 0x3f,
  0x8e, 0x69, 0xdc, 0x3e, 0xc9, 0xf2, 0x13, 0x3e, 0xed, 0x5a, 0xfe, 0x3d,
  0x73, 0xb6, 0x47, 0x3e, 0xa5, 0xa5, 0x32, 0x3e, 0x26, 0xb6, 0xa5, 0xbe,
  0xc8, 0x14, 0xa4, 0x3d, 0x80, 0x0c, 0xb1, 0x3d, 0xe1, 0xd5, 0x03, 0x3e,
  0x00, 0x25, 0x0f, 0xbd, 0xe0, 0x2b, 0x95, 0xbd, 0x6a, 0xbf, 0x17, 0x3e,
  0xe3, 0x7e, 0xe8, 0x3e, 0xbc, 0x23, 0x64, 0xbe, 0xf7, 0x82, 0x5a, 0xbe,
  0x04, 0x13, 0x5b, 0x3e, 0x6e, 0xa1, 0x2a, 0x3d, 0xe3, 0x81, 0xa3, 0x3d,
  0x8e, 0x03, 0x0f, 0xbd, 0xce, 0xeb, 0x8d, 0x3e, 0x20, 0x0b, 0x5a, 0x3d,
  0xa0, 0x46, 0xfa, 0xbd, 0x5f, 0x41, 0x11, 0xbf, 0xdc, 0x1a, 0xac, 0x3e,
  0x2c, 0x7e, 0xa0, 0x3e, 0xa0, 0xdc, 0x4d, 0xbe, 0x7e, 0x64, 0x6b, 0x3e,
  0x60, 0xd9, 0x70, 0xbd, 0x83, 0x20, 0x3d, 0x3f, 0x9f, 0x41, 0x97, 0xbd,
  0x48, 0xf3, 0x1d, 0xbd, 0x7c, 0xca, 0x7f, 0x3e, 0x54, 0x2a, 0x5b, 0xbe,
  0xc4, 0xda, 0x01, 0x3e, 0xe1, 0xcb, 0x80, 0xbe, 0x10, 0x2a, 0x6f, 0xbe,
  0x95, 0x94, 0xf6, 0xbd, 0xe8, 0x6b, 0x1b, 0x3e, 0xf2, 0xcc, 0x2c, 0xbf,
  0x5c, 0x9f, 0x6e, 0x3e, 0x7b, 0xe9, 0xcb, 0x3e, 0x38, 0xc9, 0x44, 0xbe,
  0x08, 0x44, 0xc4, 0x3d, 0xbd, 0x93, 0x8d, 0xbc, 0x17, 0xc9, 0xe4, 0xbd,
  0x58, 0x14, 0x50, 0xbe, 0x50, 0x03, 0x8c, 0xbd, 0x00, 0x8a, 0xb9, 0x3d,
  0x58, 0xd3, 0xb7, 0xbd, 0x74, 0x01, 0x06, 0xbe, 0xf8, 0x43, 0x51, 0xbe,
  0x40, 0x15, 0x84, 0x3d, 0x1c, 0xeb, 0x18, 0x3e, 0xc4, 0x81, 0x48, 0x3e,
  0x38, 0x40, 0x7c, 0xbe, 0xe8, 0xaf, 0x8e, 0x3d, 0x00, 0xb8, 0x92, 0xb9,
  0xfc, 0x56, 0x69, 0x3e, 0x08, 0xba, 0x16, 0x3e, 0xa0, 0x3f, 0x76, 0x3d,
  0xc0, 0x0e, 0xd6, 0xbd, 0x00, 0xf6, 0x4f, 0x3c, 0x00, 0x8d, 0x0e, 0x3e,
  0x40, 0xb7, 0x2d, 0xbd, 0x78, 0x14, 0x44, 0xbe, 0xa0, 0x5e, 0x87, 0x3d,
  0x70, 0x9d, 0x7b, 0x3d, 0x88, 0x26, 0xe3, 0xbd, 0x90, 0x48, 0xbb, 0xbd,
  0xd8, 0x4d, 0x87, 0x3d, 0xf0, 0x4b, 0x54, 0xbe, 0x40, 0xb1, 0x4b, 0xbc,
  0xa0, 0xb0, 0xae, 0x3c, 0x28, 0xe9, 0x44, 0x3e, 0x48, 0x94, 0x37, 0xbe,
  0x78, 0x6b, 0xbd, 0xbd, 0xa0, 0x1c, 0x37, 0xbd, 0xd4, 0x56, 0x17, 0xbe,
  0x5c, 0xd8, 0x6a, 0x3e, 0x30, 0xcb, 0x79, 0xbd, 0xbc, 0xf8, 0x1f, 0x3e,
  0xbc, 0x6d, 0x02, 0x3e, 0x10, 0x06, 0xe5, 0xbd, 0x88, 0xa7, 0xc9, 0xbd,
  0x08, 0xdc, 0x3a, 0x3e, 0x90, 0xb0, 0xf1, 0x3d, 0x20, 0x41, 0xb3, 0xbc,
  0xf0, 0x55, 0x7e, 0xbd, 0xc0, 0x53, 0x20, 0xbd, 0x00, 0x30, 0x27, 0xba,
  0x08, 0x46, 0x26, 0xbe, 0x30, 0x7b, 0xb5, 0xbd, 0xb8, 0x85, 0x21, 0x3e,
  0x20, 0xc2, 0x06, 0x3e, 0xa0, 0x6d, 0xeb, 0x3c, 0x44, 0x3f, 0x25, 0x3e,
  0xe0, 0xce, 0xec, 0x3d, 0x00, 0xde, 0xd3, 0x3b, 0x00, 0xfc, 0x46, 0xbb,
  0x28, 0x3c, 0x2a, 0x3e, 0xc0, 0x04, 0x57, 0xbc, 0x1c, 0x13, 0x65, 0xbe,
  0x78, 0xd4, 0xe0, 0xbd, 0x88, 0xdc, 0xde, 0xbd, 0xf8, 0x68, 0x3f, 0x3e,
  0x60, 0xe2, 0x32, 0x3e, 0xd8, 0xbd, 0x0a, 0xbe, 0xfc, 0x08, 0x77, 0x3e,
  0xc4, 0x7c, 0x74, 0xbe, 0xf0, 0x52, 0x35, 0x3e, 0x1a, 0xd6, 0x54, 0x3e,
  0xa0, 0xfe, 0x8a, 0x3c, 0x18, 0x32, 0x8a, 0xbd, 0x55, 0x41, 0x29, 0xbe,
  0x2c, 0xc1, 0xaf, 0xbd, 0x90, 0x67, 0x13, 0xbe, 0x80, 0xc6, 0x98, 0x3c,
  0x1c, 0x6c, 0x3f, 0xbe, 0xfb, 0xe4, 0xdd, 0x3e, 0xbb, 0xfc, 0x01, 0xbe,
  0x7b, 0xc7, 0x0f, 0xbe, 0xa0, 0x41, 0x99, 0xbd, 0xec, 0x62, 0x10, 0xbc,
  0x40, 0xa1, 0xa0, 0xbd, 0x96, 0xa2, 0xe3, 0x3e, 0x32, 0x04, 0x5d, 0xbe,
  0xbc, 0xec, 0xa0, 0x3e, 0x6d, 0xe5, 0x41, 0xbf, 0x5e, 0xe7, 0xd0, 0xbe,
  0xde, 0x15, 0x5e, 0x3d, 0x2b, 0x6a, 0x06, 0x3e, 0xfe, 0xa2, 0xcc, 0x3e,
  0x95, 0xa4, 0x41, 0xbf, 0xb4, 0xe0, 0x7b, 0x3e, 0xb0, 0xce, 0x4a, 0x3d,
  0x64, 0x6b, 0x2d, 0xbe, 0x9a, 0xa4, 0x9e, 0x3e, 0x50, 0xed, 0x7b, 0x3d,
  0x50, 0xd3, 0xaa, 0xbd, 0x1b, 0xf3, 0x97, 0x3d, 0xef, 0x2b, 0x6b, 0xbf,
  0x93, 0x00, 0x21, 0xbe, 0x37, 0x2d, 0xfa, 0xbd, 0xf3, 0x56, 0xf1, 0xbb,
  0xd8, 0x40, 0xff, 0x3e, 0x3e, 0x6c, 0x88, 0xbd, 0xb0, 0xc8, 0xce, 0xbe,
  0x3d, 0x7d, 0xe7, 0x3d, 0xba, 0x2d, 0x7f, 0x3d, 0x77, 0xd7, 0xa3, 0x3f,
  0x06, 0xf9, 0x80, 0x3f, 0xfe, 0x30, 0xd6, 0xbe, 0xc2, 0xee, 0x1b, 0xbf,
  0x10, 0x50, 0x28, 0x3d, 0x12, 0x2d, 0x01, 0xbd, 0xa0, 0xe2, 0x36, 0xbd,
  0xd8, 0xa7, 0x68, 0xbf, 0xbb, 0x14, 0x90, 0x3d, 0x16, 0x90, 0x13, 0x3e,
  0xa8, 0xf8, 0xa6, 0x3e, 0x9c, 0xa1, 0x54, 0x3e, 0x26, 0x76, 0x29, 0x3e,
  0xb6, 0xa7, 0x6c, 0x3f, 0xf0, 0xab, 0x24, 0xbe, 0xa8, 0x8f, 0x46, 0xbe,
  0xe8, 0x72, 0x1a, 0x3e, 0xb3, 0x13, 0x79, 0x3f, 0x5c, 0xb7, 0x0c, 0x3e,
  0x48, 0x52, 0x0b, 0xbf, 0x88, 0x1d, 0x24, 0x3e, 0x20, 0x5c, 0xaa, 0x3c,
  0x91, 0xf8, 0x00, 0xbf, 0x5f, 0x2f, 0x06, 0x3f, 0x88, 0x14, 0x52, 0x3e,
  0x9c, 0xfe, 0x5b, 0xbe, 0x04, 0x29, 0x3d, 0x3e, 0x88, 0x92, 0x59, 0x3e,
  0xb4, 0xc9, 0x14, 0xbe, 0xa0, 0x08, 0xd9, 0x3c, 0x10, 0xd2, 0x7d, 0xbe,
  0x7c, 0x4f, 0x07, 0xbe, 0x60, 0x24, 0x33, 0xbe, 0x80, 0x5b, 0xf9, 0xbb,
  0x20, 0xb8, 0x8e, 0xbc, 0xd8, 0x2a, 0xbe, 0x3d, 0x8c, 0xbf, 0x65, 0xbe,
  0xe0, 0xaf, 0xc3, 0x3d, 0x0c, 0x4a, 0x0e, 0x3e, 0x38, 0x6f, 0x6d, 0xbe,
  0xc8, 0x7e, 0x59, 0xbe, 0xcc, 0x28, 0x40, 0xbe, 0x78, 0x72, 0xc0, 0x3d,
  0xe8, 0x39, 0x08, 0xbe, 0x54, 0xbb, 0x34, 0x3e, 0x40, 0x72, 0x23, 0xbc,
  0x54, 0xec, 0x17, 0xbe, 0x1c, 0x3b, 0x58, 0xbe, 0x30, 0x14, 0x0c, 0xbe,
  0x10, 0xcc, 0xbd, 0xbd, 0x58, 0x64, 0x68, 0xbe, 0xe4, 0x3c, 0x7c, 0xbe,
  0x00, 0x15, 0xe1, 0xbd, 0x28, 0x5c, 0xcc, 0x3d, 0xd0, 0xc8, 0xcd, 0x3d,
  0xf8, 0x93, 0x02, 0xbe, 0x70, 0xf1, 0x2b, 0xbd, 0xc0, 0x9f, 0xd2, 0xbd,
  0x40, 0x8a, 0xb0, 0xbc, 0x40, 0x1e, 0x93, 0x3d, 0x40, 0xcb, 0x51, 0x3d,
  0xc8, 0xa0, 0xbd, 0xbd, 0x18, 0x8b, 0x59, 0x3e, 0x40, 0xfe, 0x81, 0xbc,
  0xb4, 0xae, 0x1b, 0x3e, 0xc0, 0x52, 0x8c, 0x3c, 0x50, 0x81, 0x0a, 0xbe,
  0xd0, 0x96, 0x3a, 0x3e, 0x00, 0x7c, 0xa1, 0x3b, 0xb0, 0x36, 0x50, 0x3e,
  0x60, 0x65, 0xc4, 0x3c, 0xa4, 0xb3, 0x1d, 0xbe, 0x50, 0xe8, 0xab, 0x3d,
  0x20, 0x7f, 0x44, 0x3e, 0x38, 0x72, 0x99, 0x3d, 0xd0, 0xad, 0x77, 0x3e,
  0x40, 0x00, 0xe9, 0xbd, 0xa8, 0x62, 0x91, 0x3d, 0x30, 0x8d, 0xe0, 0x3d,
  0x08, 0x4b, 0x36, 0xbe, 0x48, 0x47, 0x11, 0xbe, 0x50, 0xd7, 0x80, 0x3d,
  0xc4, 0xf1, 0x12, 0x3e, 0xe0, 0xea, 0x90, 0xbd, 0x80, 0x59, 0x04, 0xbc,
  0x6c, 0x81, 0x66, 0xbe, 0x28, 0x93, 0x03, 0xbe, 0xa8, 0xd7, 0x56, 0xbe,
  0xa0, 0x13, 0x31, 0x3d, 0xb8, 0xde, 0x0b, 0x3f, 0x40, 0x8d, 0x36, 0xbc,
  0xa0, 0xac, 0xc8, 0xbc, 0xf9, 0x81, 0x50, 0x3e, 0x3e, 0x6f, 0xe1, 0x3d,
  0x18, 0x1f, 0x10, 0xbe, 0x80, 0xa3, 0xb0, 0x3b, 0xd0, 0xf7, 0x71, 0x3e,
  0x7d, 0x7e, 0x8d, 0xbe, 0xf1, 0xd5, 0xba, 0xbd, 0x87, 0xa1, 0xdb, 0xbd,
  0xb0, 0xe8, 0x8c, 0xbd, 0xce, 0x2f, 0xa8, 0xbd, 0xc8, 0xed, 0x8a, 0xbd,
  0xe5, 0x6b, 0x00, 0x3d, 0x4b, 0x84, 0x7d, 0x3e, 0x00, 0x6e, 0x8b, 0x3e,
  0xae, 0x2a, 0xda, 0x3d, 0x7f, 0x5b, 0x36, 0x3e, 0x38, 0x60, 0x1d, 0x3e,
  0xbe, 0x90, 0xf8, 0x3d, 0xb7, 0x1f, 0x63, 0x3d, 0xae, 0x4e, 0x95, 0x3e,
  0xa3, 0x4d, 0x90, 0x3c, 0x70, 0xa7, 0x0c, 0x3e, 0xb0, 0x2c, 0x7d, 0xbd,
  0x5c, 0x10, 0x33, 0x3e, 0xe8, 0x46, 0x26, 0x3e, 0x98, 0xe5, 0xd3, 0xbd,
  0xee, 0xb9, 0xd0, 0xbd, 0x40, 0x6c, 0x65, 0x3d, 0x4e, 0x0a, 0x32, 0xbd,
  0x71, 0x69, 0x9f, 0xbe, 0x4b, 0xad, 0x99, 0x3e, 0x4b, 0xd5, 0xf9, 0x3a,
  0xfd, 0xd8, 0x2d, 0xbe, 0xfc, 0x9f, 0xfe, 0x3d, 0x5a, 0x1d, 0xac, 0x3e,
  0x50, 0x23, 0xf7, 0xbd, 0x15, 0xc9, 0x88, 0x3e, 0xba, 0xe1, 0xf2, 0xbd,
  0xc4, 0xed, 0x05, 0xbe, 0xa8, 0x40, 0xb2, 0x3e, 0x2c, 0x3f, 0x74, 0x3e,
  0x7c, 0x1e, 0xdd, 0xbd, 0x50, 0xbf, 0x70, 0xbd, 0x30, 0x82, 0x0f, 0x3e,
  0x91, 0xe1, 0x23, 0xbd, 0x20, 0x1a, 0x10, 0xbe, 0x01, 0x16, 0x52, 0x3e,
  0x6c, 0x06, 0x36, 0x3e, 0x90, 0x43, 0x69, 0xbd, 0x89, 0xef, 0x4c, 0x3d,
  0x90, 0xd4, 0x6c, 0x3d, 0x58, 0x90, 0x7b, 0x3e, 0x30, 0xfc, 0x90, 0xbd,
  0x45, 0xc0, 0x09, 0x3c, 0x54, 0x6e, 0x7c, 0xbe, 0x81, 0xbd, 0x97, 0x3d,
  0x10, 0x31, 0xe8, 0x3d, 0xf8, 0x46, 0x25, 0x3e, 0x9b, 0x71, 0x40, 0x3e,
  0x55, 0x88, 0xc4, 0x3e, 0xf8, 0x3a, 0xa1, 0x3d, 0xa3, 0xdc, 0x6f, 0x3d,
  0xc4, 0xac, 0x08, 0xbe, 0x30, 0x17, 0x1f, 0xbe, 0xeb, 0xf8, 0x8a, 0xbd,
  0x85, 0x52, 0x8c, 0x3d, 0x88, 0x64, 0x20, 0xbe, 0xdc, 0x67, 0x03, 0x3e,
  0x30, 0xfa, 0x0f, 0x3d, 0x2a, 0xd1, 0x33, 0xbe, 0x66, 0x74, 0x3b, 0x3d,
  0x40, 0xe1, 0x3e, 0x3e, 0x50, 0xe1, 0x31, 0xbd, 0x80, 0x27, 0x49, 0xbd,
  0x40, 0x86, 0x16, 0x3c, 0x68, 0xcb, 0x71, 0xbe, 0x4f, 0x3e, 0x0a, 0x3e,
  0x79, 0x1b, 0x3e, 0xbe, 0xf6, 0xc2, 0x4a, 0x3e, 0x25, 0x12, 0xff, 0x3d,
  0x49, 0xfb, 0x70, 0xbe, 0x6a, 0x45, 0x56, 0x3e, 0xff, 0x92, 0x56, 0xbe,
  0xfd, 0x8d, 0x34, 0x3c, 0x48, 0x63, 0x69, 0x3e, 0x60, 0xa3, 0xe4, 0xbc,
  0x00, 0x2f, 0xfd, 0xbb, 0xb2, 0xb5, 0xe9, 0xbd, 0x20, 0x93, 0x7d, 0x3e,
  0x30, 0x36, 0x59, 0x3d, 0xd8, 0x68, 0x70, 0xbe, 0x38, 0xff, 0x65, 0xbe,
  0x0a, 0xb3, 0x0f, 0x3c, 0xba, 0xd2, 0x3d, 0xbd, 0x7e, 0xbd, 0x17, 0x3e,
  0x79, 0x1a, 0xab, 0x3d, 0x13, 0xe8, 0x61, 0xbe, 0x65, 0x40, 0xd7, 0x3c,
  0x1e, 0x91, 0x34, 0xbd, 0x9f, 0x01, 0x92, 0xbd, 0xb8, 0x16, 0x21, 0xbe,
  0x28, 0x68, 0xdc, 0xbd, 0x82, 0x45, 0x34, 0x3e, 0x7e, 0xad, 0xe3, 0x3c,
  0x90, 0xe9, 0x98, 0x3d, 0xec, 0x65, 0x72, 0x3c, 0xd8, 0x49, 0x43, 0x3e,
  0xdd, 0x8e, 0xee, 0xbd, 0x43, 0x36, 0x0a, 0xbe, 0x97, 0x31, 0x3b, 0x3c,
  0x62, 0xac, 0x89, 0xbe, 0x80, 0x43, 0x0f, 0x3e, 0x68, 0x86, 0x01, 0x3e,
  0xa7, 0x8b, 0x43, 0x3e, 0x94, 0x46, 0x57, 0x3e, 0xf0, 0x66, 0xf1, 0xbd,
  0x20, 0xb4, 0x13, 0xbd, 0xb9, 0xe2, 0x15, 0xbe, 0x40, 0x55, 0xfa, 0x3c,
  0xd4, 0xcb, 0x7a, 0xbd, 0x90, 0x4e, 0x8f, 0xbd, 0x84, 0x39, 0x0f, 0xbe,
  0xb0, 0x1d, 0x92, 0xbd, 0xd2, 0xf1, 0x4a, 0x3e, 0xd8, 0x45, 0xdd, 0xbd,
  0xaa, 0x68, 0x81, 0xbc, 0x14, 0x87, 0x26, 0xbe, 0xfc, 0x63, 0x4f, 0xbe,
  0x75, 0xd1, 0x26, 0x3e, 0xb0, 0xc6, 0x2b, 0xbd, 0x58, 0x3d, 0xca, 0xbd,
  0x30, 0x05, 0x09, 0x3e, 0x60, 0xbd, 0x38, 0xbe, 0x2e, 0x24, 0x8a, 0xbb,
  0x6a, 0x1f, 0xd7, 0x3d, 0xb8, 0x4b, 0x78, 0x3e, 0x80, 0x12, 0xd0, 0xbc,
  0xa0, 0x3b, 0x6a, 0xbd, 0x24, 0xbb, 0x53, 0xbe, 0xca, 0x5c, 0x2e, 0xbe,
  0x22, 0x80, 0x1c, 0x3d, 0x4a, 0xca, 0x54, 0xbd, 0x14, 0x1e, 0x13, 0xbe,
  0xa5, 0x5b, 0xda, 0xbc, 0x53, 0xed, 0x66, 0x3e, 0xe2, 0x36, 0x36, 0xbe,
  0xfc, 0x47, 0xae, 0xbd, 0x2d, 0xaa, 0xb3, 0x3d, 0xd2, 0x9c, 0x28, 0x3e,
  0xe4, 0x90, 0x7f, 0x3e, 0x30, 0x87, 0x8e, 0x3d, 0xdb, 0x36, 0x6b, 0x3d,
  0x3c, 0x5e, 0x0c, 0x3e, 0x30, 0x55, 0x10, 0x3e, 0xa0, 0xf4, 0x1e, 0x3d,
  0x52, 0x95, 0xff, 0x3d, 0x52, 0x81, 0x0b, 0x3e, 0xa3, 0xd1, 0x4d, 0x3e,
  0xbb, 0x47, 0x94, 0x3d, 0x9b, 0xc8, 0x2b, 0xbc, 0x8f, 0x72, 0x02, 0xbe,
  0x5e, 0xcf, 0x65, 0xbe, 0x7e, 0x85, 0x76, 0xbe, 0x90, 0xeb, 0x2a, 0xbe,
  0x0c, 0xbe, 0x68, 0x3d, 0x61, 0x1b, 0x75, 0xbe, 0xde, 0xda, 0xc8, 0x3d,
  0xdd, 0x9d, 0x57, 0xbe, 0xf0, 0x98, 0x3f, 0x3d, 0x9a, 0x28, 0x2a, 0xbd,
  0x38, 0x6c, 0x82, 0xbd, 0x56, 0xed, 0x0f, 0x3c, 0xb0, 0xf5, 0x6c, 0x3e,
  0x38, 0xd7, 0xe2, 0x3d, 0x91, 0x08, 0x2b, 0x3e, 0xe0, 0x40, 0x6a, 0x3e,
  0x96, 0x81, 0x3e, 0x3e, 0xf6, 0x86, 0x35, 0xbe, 0xf8, 0xd8, 0xdf, 0xbd,
  0x98, 0x6b, 0xe9, 0xbd, 0x90, 0x2f, 0x0f, 0x3d, 0xa2, 0xf5, 0xf8, 0xbc,
  0xb0, 0xc4, 0xf5, 0xbd, 0xe2, 0x5a, 0x73, 0xbe, 0x00, 0x0d, 0x39, 0xbb,
  0x80, 0x86, 0x5c, 0x3e, 0xe9, 0xd9, 0x82, 0xbb, 0xa4, 0x82, 0xf1, 0xb9,
  0xe0, 0x5c, 0x84, 0x3c, 0xab, 0x78, 0xf6, 0xbd, 0xc8, 0xa2, 0x77, 0xbe,
  0x88, 0xc1, 0xc1, 0x3d, 0x8f, 0xb1, 0x24, 0xbe, 0x80, 0x1c, 0x56, 0xbe,
  0x5c, 0x4c, 0x0a, 0x3e, 0xcc, 0xf3, 0x39, 0xbe, 0xcc, 0x1a, 0x68, 0x3e,
  0x18, 0x97, 0x68, 0x3c, 0x70, 0xf5, 0xe9, 0xbd, 0x30, 0xfe, 0x3f, 0x3d,
  0x00, 0x96, 0xa1, 0x3a, 0x53, 0x9f, 0x46, 0x3e, 0x00, 0xc1, 0x5f, 0xbd,
  0x4c, 0xcf, 0xe9, 0x3d, 0xe0, 0xa9, 0x7c, 0x3e, 0x3a, 0xb2, 0x0f, 0xbe,
  0x54, 0xbc, 0x74, 0xbe, 0x7c, 0x71, 0xe5, 0x3d, 0x30, 0xc2, 0x17, 0xbe,
  0xf7, 0x45, 0x60, 0xbe, 0xab, 0x35, 0x10, 0x3e, 0x72, 0xee, 0xf5, 0xbd,
  0x90, 0xa1, 0x0a, 0xbe, 0x20, 0x2e, 0x9a, 0x3d, 0xe0, 0x61, 0x9c, 0x3c,
  0xdc, 0x9c, 0x4d, 0x3e, 0x20, 0x72, 0x80, 0x3c, 0xcc, 0x47, 0x42, 0x3e,
  0x18, 0x1f, 0xf6, 0x3d, 0x2e, 0xf7, 0x42, 0x3e, 0xe7, 0xac, 0xb8, 0x3d,
  0x96, 0xc3, 0x4a, 0x3e, 0xae, 0x60, 0x32, 0xbe, 0x72, 0xc8, 0x04, 0xbe,
  0xc4, 0x72, 0x52, 0xbe, 0xdf, 0x8d, 0x08, 0xbe, 0xe2, 0x68, 0x97, 0xbc,
  0xa0, 0x77, 0x74, 0x3d, 0x70, 0x1c, 0xdf, 0xbd, 0x78, 0x72, 0x4d, 0x3e,
  0xb4, 0x37, 0x3b, 0x3e, 0x20, 0x19, 0x37, 0xbd, 0x64, 0x2e, 0x0b, 0xbe,
  0x1d, 0x93, 0x2d, 0xbe, 0x28, 0x98, 0x71, 0x3e, 0x24, 0x1c, 0x42, 0x3e,
  0x50, 0x0a, 0xc0, 0xbd, 0xc0, 0x50, 0x6c, 0x3d, 0x0e, 0xbd, 0xd1, 0xbd,
  0xd0, 0x28, 0x77, 0xbe, 0xc7, 0xa0, 0xcd, 0x3d, 0x54, 0x4b, 0x4b, 0x3e,
  0x20, 0x78, 0xac, 0x3c, 0xf0, 0x6c, 0xc6, 0xbd, 0x40, 0xc8, 0x8f, 0x3c,
  0xc8, 0x41, 0x88, 0x3d, 0xe4, 0xe4, 0x26, 0xbe, 0x0a, 0x5c, 0x68, 0xbc,
  0xcc, 0xf1, 0x03, 0xbe, 0x90, 0xd5, 0x03, 0x3d, 0xf2, 0x11, 0x6a, 0xbc,
  0x6c, 0xec, 0x0c, 0xbe, 0xa0, 0x61, 0x45, 0xbd, 0xee, 0x87, 0x3a, 0x3f,
  0x40, 0x4f, 0xe7, 0x3d, 0xf8, 0x08, 0x11, 0xbe, 0x81, 0xd3, 0xd4, 0xbd,
  0x78, 0xc0, 0xd5, 0x3e, 0x40, 0xcc, 0x63, 0x3e, 0x04, 0x43, 0x41, 0x3e,
  0x88, 0xb9, 0xe8, 0xbd, 0xd3, 0x8d, 0x2b, 0xbc, 0x55, 0xa6, 0x24, 0x3e,
  0x19, 0x9f, 0x2e, 0x3e, 0xf4, 0x93, 0x63, 0xbe, 0x84, 0x42, 0xb8, 0x3c,
  0x38, 0x95, 0xb8, 0xbd, 0x2e, 0x1c, 0xcb, 0x3e, 0x90, 0xdd, 0xea, 0x3e,
  0x3b, 0x63, 0x5a, 0x3f, 0xc5, 0x47, 0x84, 0xbe, 0x9a, 0x5c, 0x93, 0xbd,
  0xa5, 0xd0, 0xc3, 0xbd, 0xc9, 0x7b, 0x81, 0xbd, 0xcb, 0xcc, 0xc8, 0x3e,
  0x0c, 0x99, 0x00, 0xbf, 0x47, 0x50, 0x9c, 0x3d, 0xe4, 0xb2, 0x3c, 0x3e,
  0x40, 0xc6, 0x32, 0x3e, 0x82, 0xe0, 0xa0, 0x3e, 0x48, 0x75, 0x08, 0xbe,
  0x60, 0x1f, 0x11, 0xbd, 0x50, 0xfc, 0x10, 0xbd, 0xf4, 0xf9, 0x7d, 0xbd,
  0x73, 0x39, 0xf3, 0xbe, 0x31, 0xd1, 0x6e, 0xbe, 0xd6, 0xbf, 0x91, 0x3d,
  0x06, 0x5a, 0xb0, 0x3e, 0x75, 0xdd, 0x96, 0xbe, 0x32, 0xa2, 0x82, 0xbe,
  0x95, 0xbf, 0x80, 0x3e, 0xee, 0x84, 0x75, 0xbe, 0x9d, 0xcd, 0xad, 0x3f,
  0xdf, 0x30, 0x2d, 0x3f, 0xd7, 0xb4, 0x31, 0xbf, 0xc6, 0xe7, 0x51, 0xbe,
  0xa0, 0x2a, 0xcb, 0xbd, 0x46, 0x79, 0x15, 0xbe, 0x2c, 0x0a, 0x05, 0x3e,
  0xce, 0xb2, 0x1c, 0xbf, 0xa0, 0xc1, 0xa8, 0x3d, 0xf8, 0x60, 0x36, 0xbe,
  0xd8, 0x2f, 0x14, 0x3f, 0xd0, 0xe4, 0x0c, 0x3e, 0x3d, 0x1b, 0xaa, 0x3e,
  0xf2, 0xf9, 0xef, 0x3e, 0x08, 0xf6, 0x67, 0x3e, 0x04, 0xb0, 0x00, 0xbe,
  0xa0, 0x91, 0xaa, 0xbc, 0xa9, 0x5c, 0x24, 0x3f, 0x20, 0x19, 0x4e, 0xbd,
  0xf3, 0xdc, 0x2e, 0xbe, 0x58, 0x1d, 0xc5, 0xbd, 0x18, 0x0d, 0x6b, 0xbe,
  0x6d, 0x8a, 0xd0, 0xbe, 0xe0, 0xc4, 0x57, 0x3f, 0x40, 0xc3, 0x11, 0x3c,
  0x2a, 0x49, 0x4e, 0x3e, 0x54, 0x45, 0x28, 0xbe, 0x28, 0x71, 0xde, 0x3d,
  0xe9, 0x1e, 0xa2, 0x3e, 0x87, 0x60, 0xd1, 0x3e, 0x98, 0x22, 0x89, 0xbd,
  0x90, 0xe8, 0xdd, 0x3d, 0xb8, 0xbb, 0xee, 0xbd, 0x87, 0x74, 0xf1, 0xbe,
  0x96, 0x8c, 0xca, 0xbd, 0xaa, 0x7e, 0xcd, 0x3d, 0xa4, 0xd9, 0x43, 0x3e,
  0x28, 0x2e, 0x81, 0x3d, 0x70, 0x53, 0xb8, 0xbd, 0xc1, 0xf3, 0x94, 0xbe,
  0x72, 0xbc, 0x3d, 0x3f, 0x1e, 0x52, 0xee, 0x3d, 0x89, 0x83, 0x33, 0x3f,
  0x88, 0x08, 0x09, 0x3f, 0x50, 0x08, 0x6d, 0xbe, 0x07, 0x3e, 0x08, 0xbe,
  0xd0, 0xc7, 0x87, 0xbc, 0x51, 0x5f, 0x8e, 0x3e, 0x7f, 0x6d, 0xea, 0xbd,
  0x80, 0x62, 0xce, 0xbc, 0xf4, 0x65, 0x3a, 0xbe, 0xa1, 0x05, 0xa0, 0xbd,
  0xf4, 0x17, 0x0a, 0xbe, 0x98, 0x9e, 0xbd, 0x3d, 0xba, 0x56, 0x5a, 0xbd,
  0xcc, 0x04, 0x44, 0x3f, 0x94, 0x15, 0x6d, 0x3e, 0x74, 0x2d, 0x1f, 0xbe,
  0x1f, 0xd8, 0xe5, 0x3e, 0x5d, 0x5a, 0x54, 0x3e, 0x64, 0x82, 0x50, 0x3e,
  0xfe, 0x3c, 0x20, 0x3f, 0xa2, 0xad, 0xa2, 0x3e, 0x62, 0x35, 0x6e, 0x3e,
  0x25, 0x71, 0x33, 0xbf, 0xcd, 0x8f, 0x32, 0xbf, 0x40, 0x4e, 0x43, 0x3f,
  0x80, 0xb9, 0x38, 0x3f, 0xd8, 0x71, 0xcc, 0x3d, 0x97, 0x32, 0xf2, 0x3e,
  0xb0, 0x0d, 0x67, 0xbd, 0xd0, 0x17, 0x76, 0x3f, 0x66, 0x44, 0xad, 0xbb,
  0x03, 0x7f, 0x79, 0x3e, 0xaa, 0x82, 0x59, 0x3e, 0x58, 0x3d, 0x2a, 0x3e,
  0x8e, 0xde, 0x21, 0xbe, 0x28, 0xff, 0x1f, 0xbf, 0xe0, 0x60, 0xb5, 0xbd,
  0x18, 0x25, 0x38, 0xbe, 0x30, 0xb6, 0x4f, 0xbd, 0x7c, 0x17, 0x41, 0xbf,
  0xc0, 0xd6, 0x85, 0xbd, 0x59, 0x95, 0x2d, 0x3f, 0x68, 0x05, 0x43, 0xbe,
  0x18, 0x9d, 0xca, 0xbd, 0x9f, 0xe2, 0x3d, 0x3f, 0x5e, 0x7f, 0x81, 0xbe,
  0x00, 0x48, 0xfa, 0x3b, 0x74, 0xd7, 0xd6, 0x3e, 0x38, 0x68, 0x90, 0x3d,
  0xd0, 0x03, 0x50, 0xbd, 0xb6, 0xf8, 0x35, 0x3e, 0x07, 0x17, 0xe9, 0x3e,
  0xe0, 0x4e, 0xfc, 0xbc, 0x48, 0x8f, 0xb6, 0xbd, 0x70, 0xec, 0x34, 0xbe,
  0xb1, 0x73, 0x1b, 0xbf, 0x20, 0xb3, 0xbf, 0xbd, 0x40, 0x2a, 0x9a, 0xbd,
  0x58, 0x1d, 0x29, 0x3e, 0xe8, 0x26, 0x46, 0xbe, 0x70, 0x96, 0x76, 0xbd,
  0x8b, 0xbe, 0x05, 0x3e, 0x96, 0xf9, 0xfa, 0x3e, 0x25, 0x0a, 0x6a, 0x3f,
  0xe3, 0x5e, 0x91, 0x3e, 0x4b, 0xc6, 0x88, 0x3d, 0xd0, 0x7f, 0x16, 0x3e,
  0x61, 0x6d, 0x98, 0xbe, 0x02, 0x2c, 0x26, 0x3f, 0xba, 0xee, 0xc2, 0xbe,
  0xf8, 0xac, 0x3c, 0x3d, 0x30, 0xe6, 0x02, 0x3e, 0x40, 0x6b, 0x25, 0xbe,
  0xb1, 0x38, 0x90, 0x3d, 0xd4, 0xb6, 0x75, 0xbe, 0x10, 0x2f, 0xe3, 0x3d,
  0x54, 0x9b, 0x18, 0xbe, 0xdc, 0x68, 0xef, 0x3e, 0x39, 0x7e, 0xb9, 0xbe,
  0xbc, 0x4a, 0x2a, 0xbf, 0x44, 0x46, 0x92, 0x3e, 0x48, 0x7c, 0x5c, 0x3e,
  0x4f, 0x60, 0x07, 0xbe, 0x66, 0x4f, 0xb3, 0x3c, 0xa7, 0x91, 0xbe, 0x3e,
  0x20, 0xf8, 0xfe, 0xbd, 0xfb, 0xd0, 0x4f, 0x3f, 0x0f, 0xa5, 0x06, 0x3d,
  0x52, 0xa0, 0x5e, 0x3d, 0x81, 0x3b, 0xda, 0x3d, 0x58, 0x6f, 0x31, 0x3e,
  0xf5, 0x07, 0x3d, 0xbe, 0xd8, 0x73, 0x45, 0xbe, 0xe4, 0x6e, 0x77, 0x3e,
  0x75, 0xcc, 0xe6, 0x3d, 0x78, 0x53, 0xaa, 0x3d, 0xb5, 0x7c, 0xc5, 0x3e,
  0x38, 0x0c, 0xe3, 0x3d, 0x56, 0x8e, 0xf1, 0xbd, 0x5f, 0x5a, 0x16, 0x3e,
  0x80, 0xd3, 0xf0, 0x3c, 0xa8, 0x40, 0x99, 0x3d, 0x90, 0xe0, 0xad, 0xbd,
  0x28, 0x58, 0x3b, 0x3e, 0x90, 0x28, 0x31, 0x3e, 0xc5, 0x8d, 0x4b, 0xbd,
  0xa8, 0x90, 0x48, 0xbe, 0xb0, 0xe4, 0xa9, 0x3d, 0x30, 0x5a, 0x02, 0xbd,
  0x1e, 0xea, 0x2e, 0x3f, 0xf8, 0xb3, 0x28, 0xbe, 0x2c, 0x73, 0x7f, 0xbe,
  0xfc, 0x3e, 0x7c, 0x3e, 0xf0, 0xbf, 0x16, 0xbe, 0xe9, 0x78, 0x1d, 0x3d,
  0xe0, 0xea, 0x01, 0x3d, 0x88, 0xe5, 0x49, 0x3e, 0x8c, 0x57, 0x4c, 0xbe,
  0xd0, 0x4e, 0x49, 0x3e, 0x4e, 0xbb, 0xd8, 0x3b, 0x44, 0xd0, 0x6b, 0xbe,
  0x5c, 0x9b, 0x09, 0x3e, 0xe8, 0x47, 0x27, 0xbe, 0x08, 0x28, 0xfd, 0x3d,
  0x68, 0x02, 0xfc, 0x3d, 0x1c, 0x98, 0x4d, 0x3e, 0xea, 0x5b, 0x06, 0xbe,
  0x00, 0x08, 0x2e, 0xbe, 0x54, 0x53, 0x37, 0x3e, 0x29, 0xf5, 0x1f, 0x3e,
  0x88, 0x43, 0xb1, 0xbd, 0x65, 0x8b, 0x7c, 0x3e, 0xfa, 0xa8, 0x78, 0x3d,
  0xd2, 0x9d, 0xe7, 0x3d, 0x80, 0xc3, 0x03, 0xbe, 0x30, 0x2e, 0xaa, 0xbd,
  0x0c, 0x28, 0x73, 0xbe, 0x6e, 0x16, 0xc9, 0xbd, 0x34, 0xdf, 0x61, 0xbe,
  0xec, 0xde, 0x6d, 0x3e, 0x40, 0xa6, 0x90, 0xbd, 0x57, 0x03, 0xce, 0x3c,
  0x74, 0xc4, 0x70, 0x3e, 0x92, 0x3e, 0x2b, 0xbe, 0xcb, 0x06, 0x49, 0xbe,
  0x22, 0xc6, 0xb7, 0xbc, 0xa0, 0xa2, 0xa4, 0xbd, 0xaf, 0x5b, 0x39, 0xbe,
  0x84, 0xae, 0x1e, 0xbd, 0xf0, 0xa3, 0x5e, 0xbe, 0x8c, 0xd0, 0x2e, 0xbe,
  0x28, 0x35, 0xba, 0xbd, 0x48, 0x25, 0x3e, 0xbe, 0x66, 0x7c, 0x4e, 0x3d,
  0x34, 0x70, 0x17, 0xbe, 0x58, 0xa5, 0x17, 0x3a, 0xac, 0x19, 0x75, 0x3e,
  0xd8, 0x96, 0x35, 0xbe, 0xd8, 0x16, 0xaf, 0x3d, 0x38, 0x9a, 0xd9, 0x3d,
  0xaf, 0xde, 0x0e, 0xbe, 0x6c, 0x40, 0x6a, 0x3e, 0x19, 0x31, 0x08, 0x3e,
  0xe4, 0xa7, 0xe1, 0xbd, 0xe0, 0x00, 0xbe, 0xbd, 0x44, 0x7b, 0x5f, 0xbe,
  0x00, 0xae, 0x3e, 0xbc, 0x84, 0xe9, 0x37, 0xbe, 0xa8, 0x45, 0x30, 0xbe,
  0xcb, 0x7e, 0x62, 0xbe, 0x98, 0xf9, 0x7b, 0xbe, 0xf8, 0x25, 0xb7, 0xbd,
  0x44, 0x9c, 0x42, 0xbe, 0xf8, 0xe9, 0xa8, 0x3d, 0x60, 0x0c, 0xce, 0x3d,
  0x97, 0x18, 0xc4, 0xbe, 0xa4, 0xaf, 0x45, 0x3e, 0xbc, 0xa0, 0x31, 0xbe,
  0x7a, 0x78, 0x8f, 0x3e, 0x91, 0xba, 0x90, 0xbe, 0x10, 0x4a, 0x02, 0x3d,
  0x50, 0x03, 0xca, 0xbd, 0x70, 0x4e, 0x1d, 0x3e, 0x3e, 0x92, 0xae, 0x3e,
  0x4d, 0x9a, 0x79, 0x3d, 0x18, 0x36, 0x5b, 0x3d, 0xe0, 0xf6, 0x0d, 0x3d,
  0x7b, 0x63, 0x0f, 0xbe, 0x08, 0x55, 0x4c, 0x3e, 0x6f, 0x6c, 0x25, 0xbf,
  0x4a, 0xa6, 0xb3, 0x3e, 0xed, 0xef, 0xf7, 0xbe, 0xf7, 0x1d, 0x03, 0x3f,
  0x5e, 0xda, 0x1d, 0x3f, 0x78, 0x7d, 0xc5, 0xbb, 0x9e, 0x12, 0x0c, 0x3d,
  0xe2, 0xf6, 0xb5, 0xbe, 0x4a, 0x94, 0x72, 0x3f, 0x44, 0xdd, 0xc7, 0x3d,
  0xd0, 0x4a, 0x6c, 0xbd, 0x54, 0x48, 0x38, 0xbe, 0x87, 0x71, 0xa7, 0x3c,
  0xa0, 0xec, 0x51, 0xbe, 0xa0, 0xf2, 0x5e, 0xbe, 0xe9, 0x6f, 0xaa, 0xbd,
  0x52, 0x73, 0x55, 0x3f, 0xb0, 0xd2, 0xcf, 0x3e, 0xce, 0xcd, 0x0e, 0x3f,
  0x22, 0xe8, 0xc4, 0x3e, 0xbd, 0x07, 0xcc, 0xbd, 0x6c, 0x03, 0x05, 0x3f,
  0xca, 0x8b, 0x1e, 0x3f, 0xc0, 0x75, 0x24, 0x3e, 0xdc, 0x34, 0x6e, 0x3e,
  0xca, 0x58, 0xa2, 0xbf, 0x26, 0xae, 0x0e, 0xbf, 0xff, 0xe0, 0x52, 0x3f,
  0xea, 0x57, 0xf2, 0x3e, 0x80, 0x19, 0x58, 0xbe, 0xbd, 0x93, 0x98, 0x3e,
  0x00, 0x83, 0xfc, 0xbc, 0xd7, 0x81, 0x8a, 0x3f, 0xd7, 0x47, 0xf1, 0xbd,
  0xf0, 0xe0, 0x76, 0xbc, 0x18, 0x43, 0xd8, 0xbe, 0x64, 0xe5, 0x09, 0xbe,
  0xfb, 0x36, 0xc9, 0x3d, 0xe8, 0xd4, 0x32, 0xbf, 0xec, 0x77, 0x6e, 0x3e,
  0xc3, 0xf6, 0x24, 0x3d, 0x40, 0x30, 0x76, 0x3c, 0x9e, 0x34, 0x1b, 0xbf,
  0x98, 0xc7, 0x42, 0xbe, 0x8d, 0x25, 0x51, 0x3f, 0x80, 0xf6, 0x04, 0xbc,
  0x98, 0x25, 0x3a, 0xbe, 0xfb, 0xdc, 0x24, 0x3f, 0xda, 0xea, 0xfe, 0xbe,
  0x38, 0xaa, 0x07, 0x3e, 0x24, 0x7a, 0x7c, 0x3d, 0x08, 0xf7, 0x90, 0x3d,
  0xe8, 0xef, 0xc0, 0x3d, 0x89, 0x5e, 0x2b, 0xbd, 0x80, 0x5a, 0x76, 0xbe,
  0xd0, 0x83, 0x1a, 0x3e, 0x40, 0x57, 0x14, 0x3c, 0x70, 0x00, 0x76, 0xbe,
  0x52, 0x51, 0x50, 0x3e, 0x1b, 0xb1, 0x7b, 0x3e, 0x14, 0xdb, 0x3e, 0xbe,
  0xf0, 0x1a, 0x66, 0xbd, 0x00, 0x88, 0x70, 0xba, 0x40, 0x94, 0x0a, 0xbe,
  0x66, 0x88, 0xa6, 0xbd, 0x92, 0x60, 0x01, 0xbe, 0xf3, 0x12, 0x24, 0xbe,
  0x1d, 0xdd, 0x18, 0xbe, 0xe4, 0x47, 0x94, 0xbd, 0xed, 0xc1, 0x1f, 0x3e,
  0x6e, 0x13, 0x50, 0xbe, 0x67, 0x4f, 0x1f, 0xbe, 0xc4, 0x40, 0x22, 0x3b,
  0x3e, 0x1f, 0x48, 0x3e, 0x40, 0x52, 0xe5, 0xbd, 0xe0, 0x01, 0x5d, 0xbd,
  0x1a, 0x59, 0xac, 0x3d, 0xc0, 0x1a, 0x17, 0x3c, 0xf0, 0xcc, 0x32, 0xbe,
  0xc0, 0xd6, 0x0b, 0x3e, 0xf0, 0x06, 0x43, 0x3e, 0xff, 0x6c, 0xaa, 0xbd,
  0xc2, 0x28, 0x8c, 0xba, 0x36, 0x20, 0x00, 0x3e, 0x6c, 0x36, 0x74, 0xbe,
  0x29, 0x5e, 0x18, 0x3e, 0x0f, 0x1a, 0xaa, 0x3d, 0x41, 0x43, 0x80, 0xbe,
  0x64, 0x97, 0x6d, 0xbe, 0x03, 0x2c, 0x90, 0xbc, 0xf1, 0x14, 0x67, 0xbd,
  0x00, 0x24, 0x37, 0x3e, 0xdb, 0x7c, 0x58, 0xbd, 0x20, 0xce, 0xbc, 0x3d,
  0xeb, 0x7e, 0xba, 0xbd, 0x68, 0xe9, 0x84, 0x3d, 0xc2, 0xf7, 0x80, 0xbd,
  0x0c, 0x10, 0x41, 0x3e, 0xa4, 0x59, 0x33, 0xbe, 0x6e, 0x25, 0xe4, 0x3d,
  0xc4, 0x7e, 0x36, 0xbe, 0x97, 0x35, 0xb8, 0xbd, 0x7d, 0x38, 0x2a, 0xbe,
  0x80, 0x45, 0xb0, 0x3c, 0xb0, 0xa1, 0x16, 0xbd, 0x10, 0x80, 0x0d, 0x3e,
  0xa3, 0x32, 0x82, 0xbe, 0xf0, 0x1f, 0x48, 0xbd, 0x12, 0x19, 0xa1, 0xbc,
  0x44, 0x36, 0x35, 0xbe, 0xa0, 0xf9, 0x92, 0xbc, 0xa5, 0xc4, 0x1b, 0xbe,
  0x88, 0xbd, 0x3d, 0x3e, 0xc0, 0x1b, 0x3c, 0xbc, 0x37, 0x49, 0x89, 0xbd,
  0x9c, 0x4a, 0x4a, 0x3e, 0x40, 0x0f, 0xba, 0xbc, 0x91, 0x79, 0x30, 0x3e,
  0x9b, 0xb4, 0x60, 0xbc, 0xa0, 0xba, 0xfd, 0x3d, 0x54, 0x01, 0x0c, 0x3e,
  0x00, 0xe7, 0x62, 0xbd, 0x12, 0xd8, 0x9c, 0x3e, 0x31, 0x9d, 0xf1, 0xbd,
  0x22, 0xe9, 0x4f, 0x3e, 0x60, 0x50, 0x7f, 0x3e, 0xdc, 0x41, 0x3b, 0x3e,
  0x20, 0x01, 0x5a, 0xbd, 0x6e, 0xd3, 0x0a, 0x3f, 0xcd, 0xd3, 0x0e, 0xbf,
  0x86, 0x0c, 0xb3, 0x3d, 0xff, 0x52, 0x3d, 0xbe, 0x19, 0x5e, 0x5a, 0x3d,
  0x40, 0x02, 0x17, 0x3e, 0xd3, 0x27, 0xda, 0x3d, 0xe2, 0xcc, 0x71, 0x3c,
  0x23, 0xa3, 0xf8, 0xbd, 0x75, 0x2f, 0xed, 0x3e, 0xb8, 0x89, 0x25, 0xbe,
  0x50, 0x7e, 0x1d, 0x3d, 0x62, 0xab, 0xa6, 0x3c, 0x78, 0xdc, 0x6c, 0x3e,
  0x20, 0x83, 0x43, 0x3d, 0x58, 0x74, 0x1a, 0x3e, 0x1f, 0xe8, 0x12, 0xbf,
  0xe9, 0x65, 0xc7, 0x3e, 0x2a, 0x6a, 0x66, 0x3e, 0x39, 0xc2, 0x53, 0x3e,
  0x46, 0x2a, 0x1f, 0x3e, 0xcf, 0xb6, 0x8d, 0x3e, 0x92, 0xff, 0x56, 0xbe,
  0xbc, 0xcd, 0x16, 0xbe, 0xa8, 0x46, 0x22, 0xbe, 0x45, 0xb4, 0x21, 0x3e,
  0x95, 0x4e, 0x01, 0x3f, 0xf4, 0x63, 0xbb, 0xbd, 0x6b, 0x9e, 0x24, 0xbe,
  0xa8, 0x89, 0x1f, 0x3e, 0x56, 0xa7, 0xaf, 0x3e, 0xb8, 0x0c, 0xfe, 0xbd,
  0x37, 0x93, 0xb4, 0xbe, 0x2c, 0x66, 0x12, 0xbd, 0xe2, 0xed, 0x6f, 0xbe,
  0xde, 0x3a, 0x2d, 0x3e, 0x84, 0xe1, 0x32, 0xbe, 0x89, 0xb6, 0x96, 0x3c,
  0x69, 0x53, 0xe2, 0x3e, 0x98, 0x57, 0x2d, 0x3e, 0x44, 0x22, 0xb0, 0xbd,
  0x60, 0xa9, 0x18, 0xbe, 0x6c, 0x20, 0x2a, 0x3f, 0x84, 0x95, 0x60, 0xbe,
  0x56, 0x0d, 0x9e, 0x3c, 0x9c, 0x9a, 0x1e, 0x3e, 0x94, 0xe7, 0x19, 0x3e,
  0x77, 0x7b, 0xd6, 0x3d, 0x7e, 0xa4, 0x9c, 0x3a, 0x40, 0x6c, 0xa7, 0xbc,
  0x20, 0x08, 0x63, 0xbe, 0xb0, 0xd7, 0x0f, 0xbd, 0x88, 0x64, 0x78, 0xbe,
  0x34, 0x72, 0x2a, 0xbe, 0x20, 0xa4, 0x1a, 0x3e, 0xc0, 0x8e, 0x08, 0x3c,
  0x00, 0xf7, 0x6b, 0x3b, 0x40, 0xd8, 0x19, 0xbd, 0x9c, 0xdb, 0x1d, 0xbe,
  0x68, 0x45, 0xe9, 0x3d, 0x74, 0xc3, 0x20, 0xbe, 0xc8, 0xc0, 0x4b, 0xbe,
  0x00, 0x4a, 0x93, 0x3a, 0xa8, 0x2e, 0xbb, 0xbd, 0xa0, 0x06, 0x21, 0x3d,
  0xa8, 0x2a, 0x03, 0xbe, 0xe0, 0x86, 0xf9, 0x3d, 0x50, 0xa7, 0x49, 0x3e,
  0xc0, 0xa7, 0xe2, 0xbd, 0x78, 0x31, 0x8e, 0x3d, 0xb8, 0x93, 0xb5, 0x3d,
  0x00, 0x6e, 0x97, 0xbb, 0xe0, 0x84, 0x6a, 0x3d, 0x60, 0xc9, 0x8b, 0x3d,
  0xc0, 0x29, 0x98, 0xbd, 0x94, 0x63, 0x04, 0xbe, 0x50, 0x5e, 0x8f, 0xbd,
  0x98, 0xab, 0x1c, 0xbe, 0x20, 0xf4, 0x97, 0xbd, 0xf8, 0x10, 0xee, 0x3d,
  0x8c, 0xf4, 0x63, 0xbe, 0x80, 0x21, 0x88, 0x3c, 0x48, 0x95, 0x71, 0xbe,
  0xb0, 0x81, 0x1e, 0x3d, 0xa8, 0x69, 0xe7, 0xbd, 0x80, 0xc3, 0xcb, 0xbb,
  0x08, 0xf0, 0x26, 0x3e, 0xa4, 0x04, 0x73, 0xbe, 0x54, 0xf4, 0x3b, 0x3e,
  0x58, 0x48, 0x3b, 0x3e, 0xe0, 0xc5, 0xea, 0x3c, 0x5c, 0x4f, 0x0e, 0xbe,
  0x40, 0xe4, 0x66, 0xbc, 0xe0, 0xfd, 0x5f, 0xbe, 0x00, 0xb0, 0x4d, 0xbd,
  0x38, 0x38, 0xc7, 0x3d, 0xc0, 0x2c, 0x99, 0xbd, 0x8c, 0x26, 0x3f, 0xbe,
  0xa0, 0xf9, 0xd9, 0x3c, 0x40, 0x18, 0xe0, 0xbd, 0x00, 0xb9, 0x16, 0x3c,
  0x30, 0x6b, 0x20, 0xbd, 0xac, 0x1b, 0x6a, 0x3e, 0x00, 0x59, 0x62, 0x3d,
  0x80, 0xc3, 0x5c, 0x3e, 0xe8, 0x28, 0xb9, 0xbd, 0xe8, 0xe9, 0xe9, 0x3d,
  0x58, 0xa8, 0xee, 0xbd, 0xa0, 0xa5, 0x87, 0x3c, 0xa0, 0x4c, 0x52, 0x3e,
  0x30, 0x72, 0x31, 0xbe, 0xfc, 0x4e, 0x1d, 0x3e, 0x64, 0xc1, 0x76, 0xbe,
  0x00, 0x29, 0x53, 0x3c, 0x70, 0xb5, 0xf7, 0xbd, 0xac, 0x18, 0x0d, 0x3e,
  0xe8, 0xd2, 0x3d, 0x3e, 0xa0, 0x70, 0x4f, 0xbe, 0xb0, 0xab, 0xb7, 0xbd,
  0x8c, 0x62, 0x4c, 0xbe, 0x70, 0xba, 0x02, 0x3e, 0x80, 0xd2, 0x3b, 0x3d,
  0xe0, 0xe3, 0xb4, 0x3d, 0x38, 0x04, 0x4c, 0x3e, 0x00, 0x00, 0xca, 0x39,
  0x78, 0x4f, 0x2a, 0x3e, 0xf4, 0x95, 0x62, 0xbe, 0x40, 0xdd, 0x8b, 0x3d,
  0x08, 0x56, 0xe7, 0x3d, 0x2c, 0x9b, 0x44, 0x3e, 0x10, 0x6a, 0x57, 0x3e,
  0xc0, 0xe9, 0xf4, 0x3d, 0xc0, 0x90, 0x41, 0x3e, 0x24, 0xa9, 0x26, 0xbe,
  0x30, 0x88, 0x6f, 0xbe, 0xe8, 0x9d, 0x34, 0xbe, 0x44, 0xec, 0x08, 0xbe,
  0xe0, 0x79, 0xa0, 0xbd, 0x28, 0xbd, 0x70, 0x3e, 0x64, 0x2e, 0x32, 0x3e,
  0xb0, 0x0c, 0xf0, 0x3d, 0x50, 0x3c, 0x1d, 0x3e, 0x60, 0x90, 0x8b, 0xbd,
  0x80, 0xe5, 0xa7, 0xbc, 0x60, 0xe1, 0x2f, 0xbe, 0xc0, 0x8c, 0x53, 0xbe,
  0xe0, 0x43, 0x16, 0x3e, 0x18, 0xca, 0x93, 0x3d, 0x50, 0xca, 0x1d, 0xbd,
  0xd8, 0xa5, 0x37, 0xbe, 0x80, 0xb8, 0xde, 0xbd, 0x9c, 0x54, 0x79, 0x3e,
  0x60, 0xf1, 0x3a, 0x3e, 0xd0, 0xcf, 0x2a, 0x3e, 0xc8, 0xf6, 0xd2, 0x3d,
  0x60, 0x52, 0xf1, 0xbd, 0x48, 0x58, 0x83, 0x3d, 0x88, 0x14, 0x95, 0xbd,
  0x50, 0xfe, 0x62, 0xbe, 0x2c, 0xa7, 0x48, 0x3e, 0x70, 0xfc, 0x9c, 0x3d,
  0x10, 0x13, 0x76, 0xbe, 0x88, 0xbb, 0x5f, 0xbe, 0x08, 0x82, 0x5f, 0x3e,
  0x98, 0xe6, 0xa8, 0xbd, 0x84, 0x1f, 0x1a, 0xbe, 0x00, 0x59, 0x89, 0x3b,
  0x50, 0x00, 0x60, 0xbe, 0x38, 0x92, 0x4e, 0x3e, 0x2c, 0x15, 0x75, 0x3e,
  0x84, 0x6d, 0x02, 0xbe, 0x20, 0xe8, 0x16, 0x3d, 0x48, 0xcc, 0x3d, 0xbe,
  0x40, 0x8e, 0xa0, 0xbd, 0xc0, 0x6f, 0xd9, 0x3c, 0x80, 0x8a, 0xe2, 0x3c,
  0x6c, 0x94, 0x52, 0xbe, 0x90, 0x2d, 0x3e, 0xbe, 0x4e, 0xa7, 0x20, 0xbe,
  0x64, 0xbd, 0x25, 0xbe, 0xdc, 0xea, 0x46, 0xbe, 0x44, 0x2d, 0xaa, 0xba,
  0x33, 0xf5, 0xe6, 0xbd, 0x20, 0x5d, 0x3b, 0x3d, 0x84, 0xed, 0x20, 0x3e,
  0xd8, 0x56, 0xfd, 0xbd, 0xc2, 0x67, 0x3b, 0x3f, 0x67, 0x9b, 0x47, 0x3e,
  0xb4, 0x08, 0x6f, 0x3e, 0xe8, 0x4a, 0x79, 0xbe, 0x36, 0xef, 0x0a, 0xbe,
  0x20, 0x5c, 0xb6, 0xbc, 0x88, 0xc1, 0x93, 0xbe, 0x50, 0xa0, 0x24, 0xbf,
  0x18, 0x48, 0xc7, 0xbe, 0x80, 0xce, 0x3f, 0x3e, 0x1d, 0x47, 0x3d, 0xbe,
  0x12, 0xa2, 0x21, 0x3d, 0x15, 0x6f, 0xb7, 0x3e, 0x12, 0xbf, 0x4d, 0xbe,
  0x8c, 0x36, 0xd2, 0x3e, 0x21, 0x45, 0x50, 0xbd, 0x20, 0x71, 0x78, 0xbd,
  0x80, 0x64, 0x86, 0x3d, 0x72, 0xaa, 0xd7, 0x3d, 0x20, 0xb4, 0x9d, 0x3d,
  0xa4, 0xf2, 0x51, 0xbe, 0xcb, 0x65, 0x1c, 0x3d, 0x7d, 0x95, 0xaa, 0x3b,
  0x82, 0x49, 0x02, 0x3f, 0x29, 0xf2, 0xdd, 0x3e, 0xa0, 0x56, 0x19, 0xbe,
  0x3c, 0xf4, 0x1f, 0x3d, 0xa4, 0xb1, 0x3d, 0x3f, 0xf4, 0x7d, 0x62, 0x3e,
  0x58, 0x12, 0x8b, 0xbe, 0xa7, 0xd9, 0xa3, 0xba, 0x5e, 0x16, 0xfe, 0xbe,
  0xdf, 0xd0, 0xa3, 0x3d, 0x82, 0x70, 0x02, 0x3f, 0xb2, 0x44, 0xda, 0xbe,
  0xb4, 0x90, 0x20, 0x3e, 0xe0, 0x8a, 0x1f, 0x3e, 0xa8, 0xf4, 0x53, 0xbe,
  0xc3, 0xc7, 0x93, 0x3e, 0x88, 0xb3, 0x48, 0xb8, 0x76, 0x7f, 0xe0, 0x3d,
  0x90, 0x83, 0xa6, 0xbe, 0xc0, 0x21, 0x1e, 0x3e, 0x0b, 0x7a, 0xb0, 0x3d,
  0xff, 0x0f, 0xe2, 0xbe, 0x50, 0xbe, 0x02, 0x3e, 0x78, 0x88, 0x47, 0x3e,
  0x8c, 0xb5, 0x05, 0xbe, 0x96, 0x3f, 0x08, 0x3c, 0x20, 0x39, 0xba, 0x3d,
  0x25, 0xbf, 0x5a, 0x3e, 0xf8, 0xa8, 0x01, 0x3e, 0xa0, 0xca, 0x11, 0x3e,
  0x23, 0x27, 0x85, 0x3d, 0x68, 0xc8, 0xce, 0xbe, 0x3c, 0x0a, 0x70, 0xbe,
  0xbd, 0x4c, 0x81, 0xbe, 0xc0, 0xcd, 0x04, 0x3e, 0x5c, 0xeb, 0x42, 0x3e,
  0x48, 0xd6, 0xe7, 0xbd, 0x20, 0x5e, 0x86, 0xbe, 0x4c, 0x6e, 0x4e, 0x3e,
  0x20, 0xd8, 0xbb, 0x3d, 0x00, 0xb6, 0xde, 0xbd, 0x7a, 0xab, 0x41, 0x3f,
  0x83, 0xb2, 0xec, 0xbd, 0x77, 0xfd, 0x07, 0xbe, 0xa0, 0xcd, 0xf5, 0xbd,
  0x0e, 0x18, 0x13, 0xbe, 0x94, 0x4e, 0x56, 0x3e, 0x3e, 0xdf, 0x39, 0x3e,
  0xcb, 0x49, 0x72, 0xbf, 0xda, 0xec, 0x45, 0xbe, 0x42, 0x07, 0xb3, 0xbe,
  0xc1, 0xc5, 0xc2, 0xbe, 0x76, 0x7e, 0x77, 0xbd, 0xf9, 0xb6, 0xaf, 0x3e,
  0x1a, 0x35, 0xe6, 0xbd, 0x6a, 0x3d, 0x60, 0x3e, 0x91, 0x88, 0xd6, 0x3e,
  0xc0, 0x9d, 0xe7, 0xbc, 0x24, 0x9b, 0x73, 0x3e, 0x16, 0x4d, 0xc8, 0x3e,
  0xc8, 0x02, 0x02, 0xbe, 0x7c, 0x68, 0x11, 0x3e, 0xf3, 0x92, 0x12, 0xbe,
  0x6f, 0xbd, 0x09, 0xbf, 0xeb, 0x19, 0xe6, 0x3e, 0x52, 0x22, 0xc9, 0x3e,
  0x7e, 0x6f, 0xeb, 0xbd, 0x1b, 0xea, 0x3b, 0x3e, 0xca, 0x8b, 0xd4, 0xbc,
  0x95, 0x0c, 0xd2, 0x3d, 0x99, 0x06, 0xcd, 0xbe, 0x0a, 0xd0, 0xac, 0xbd,
  0xb1, 0xac, 0x14, 0x3f, 0x34, 0xb9, 0x13, 0x3f, 0x4a, 0x7d, 0x00, 0xbe,
  0x75, 0xdc, 0x1c, 0xbf, 0x48, 0x53, 0x73, 0xbe, 0x8b, 0xbc, 0x36, 0x3e,
  0xbc, 0x20, 0x51, 0x3e, 0xf5, 0x43, 0xe1, 0xbe, 0x22, 0x02, 0x64, 0xbd,
  0x3b, 0xd5, 0x74, 0xbe, 0x83, 0x9f, 0x4f, 0x3e, 0x00, 0x81, 0x80, 0x3c,
  0x9c, 0x39, 0xd2, 0x3e, 0x70, 0xbe, 0xfb, 0x3e, 0x48, 0x46, 0xdc, 0xbd,
  0x00, 0x0a, 0xc7, 0x3d, 0xe0, 0x1c, 0x1d, 0xbd, 0xb9, 0xfb, 0xf6, 0x3e,
  0x00, 0x0b, 0x85, 0xbd, 0xd8, 0x09, 0xa2, 0xbe, 0xe8, 0x48, 0x52, 0xbe,
  0xd0, 0x4d, 0xd2, 0xbd, 0x32, 0x8b, 0xe7, 0xbe, 0xd5, 0x0f, 0x4f, 0x3e,
  0x70, 0xc6, 0x27, 0xbe, 0x30, 0x5b, 0x68, 0xbd, 0xe4, 0x6c, 0x62, 0x3e,
  0xe4, 0x82, 0x17, 0xbe, 0x48, 0x40, 0x69, 0xbe, 0xe8, 0xb0, 0xd7, 0x3d,
  0x70, 0xab, 0xd6, 0x3d, 0x40, 0x11, 0xad, 0xbd, 0xc8, 0x51, 0x41, 0xbe,
  0x40, 0xda, 0x91, 0xbd, 0x80, 0x3a, 0x69, 0x3d, 0xc0, 0x50, 0x83, 0x3c,
  0x00, 0x01, 0x69, 0xbc, 0x60, 0xfd, 0x74, 0xbd, 0x18, 0x34, 0x54, 0xbe,
  0x08, 0x82, 0x7b, 0x3e, 0x34, 0x8f, 0x18, 0xbe, 0x0c, 0x8a, 0x62, 0xbe,
  0xb0, 0xb2, 0x4b, 0xbe, 0x3c, 0x83, 0x49, 0xbe, 0xe8, 0x15, 0x0e, 0x3e,
  0x60, 0xc6, 0x44, 0xbe, 0xc0, 0xa8, 0xdb, 0x3d, 0xa0, 0x62, 0xdf, 0xbc,
  0x00, 0x50, 0x13, 0x3c, 0x40, 0xb6, 0x32, 0xbd, 0x40, 0x2b, 0x10, 0x3d,
  0xcc, 0x3a, 0x1d, 0xbe, 0xc0, 0x81, 0x6c, 0x3d, 0xe0, 0xba, 0x3c, 0xbe,
  0x90, 0x33, 0xf3, 0x3d, 0xd0, 0x60, 0x09, 0xbe, 0x00, 0xa1, 0x2d, 0x3b,
  0x90, 0xb8, 0x0a, 0x3e, 0xb0, 0x35, 0x11, 0xbd, 0xa0, 0x20, 0xa0, 0xbc,
  0xbc, 0x55, 0x27, 0x3e, 0xa0, 0x22, 0xde, 0xbc, 0xdc, 0x44, 0x2b, 0xbe,
  0x6c, 0x22, 0x3b, 0x3e, 0x00, 0xf4, 0x68, 0xbc, 0xd0, 0x95, 0x1a, 0xbd,
  0x40, 0xd8, 0x55, 0x3d, 0x98, 0x69, 0x4e, 0xbe, 0xd0, 0xa8, 0xd8, 0x3d,
  0x90, 0x9b, 0xaf, 0x3d, 0x78, 0xe3, 0x85, 0xbd, 0xa0, 0x1d, 0xb9, 0xbc,
  0x58, 0xcd, 0xe2, 0xbd, 0x74, 0x3f, 0x4b, 0xbe, 0x0c, 0x2f, 0x43, 0xbe,
  0x98, 0x36, 0x62, 0xbe, 0x74, 0x96, 0x74, 0xbe, 0xec, 0xe7, 0x13, 0xbe,
  0x80, 0x60, 0x8f, 0xbc, 0x08, 0x14, 0x88, 0xbd, 0xc4, 0x3e, 0x19, 0xbe,
  0xd8, 0xe6, 0x5f, 0xbe, 0x7c, 0x9f, 0x37, 0x3e, 0xf0, 0xb0, 0x1d, 0x3e,
  0x1c, 0xfe, 0x7f, 0xbe, 0x48, 0x23, 0x2d, 0x3e, 0x40, 0x9d, 0x62, 0x3e,
  0xe0, 0x58, 0x32, 0xbe, 0x6c, 0x19, 0x4d, 0x3e, 0xa5, 0x1a, 0xcf, 0x3d,
  0xa8, 0xe9, 0xad, 0xbd, 0x90, 0x4e, 0x68, 0xbe, 0xae, 0xa0, 0x91, 0x3e,
  0x15, 0xff, 0xab, 0x3e, 0x78, 0x50, 0xee, 0x3d, 0x00, 0xbf, 0x17, 0xbb,
  0x18, 0x97, 0x7a, 0xbe, 0x2a, 0xf0, 0xf1, 0xbe, 0x7c, 0xbc, 0xed, 0x3d,
  0x04, 0x0d, 0x8d, 0xbd, 0x00, 0x73, 0x7f, 0xbc, 0x5a, 0x89, 0x02, 0x3d,
  0x98, 0x92, 0xe4, 0xbd, 0x09, 0x33, 0x48, 0x3e, 0xdf, 0x30, 0x1f, 0x3f,
  0x8f, 0x5b, 0xfd, 0x3e, 0x37, 0xb6, 0x05, 0x3f, 0xf1, 0x62, 0x9e, 0x3e,
  0x03, 0x3d, 0x4b, 0x3e, 0x9d, 0x24, 0x71, 0xbe, 0x0f, 0xc1, 0xac, 0x3e,
  0x49, 0xd2, 0x7a, 0x3d, 0xa2, 0xaf, 0x11, 0xbe, 0x88, 0x9d, 0x51, 0x3e,
  0x2c, 0xc4, 0x6a, 0x3e, 0xbf, 0x68, 0xa0, 0x3e, 0x90, 0x81, 0x3a, 0x3e,
  0xc0, 0x88, 0xac, 0xbd, 0xd5, 0xca, 0x1c, 0x3e, 0x64, 0x95, 0x0f, 0x3f,
  0xd7, 0x99, 0xa7, 0xbe, 0x90, 0x95, 0x90, 0xbe, 0x24, 0x42, 0xe7, 0x3e,
  0xbe, 0x5c, 0x39, 0xbc, 0x01, 0x45, 0xd4, 0xbe, 0x99, 0x3b, 0xeb, 0x3e,
  0x55, 0xe6, 0xab, 0x3e, 0xba, 0xd6, 0x34, 0xbe, 0xb0, 0xbc, 0xb0, 0x3d,
  0x99, 0xb1, 0xdd, 0x3a, 0x4a, 0x0e, 0x68, 0xbd, 0x0d, 0xd7, 0x08, 0x3f,
  0x40, 0xee, 0xf1, 0xbd, 0x23, 0x95, 0x15, 0x3e, 0x30, 0xd7, 0x1f, 0xbe,
  0x8a, 0xd4, 0x25, 0x3f, 0x7d, 0x36, 0x33, 0x3d, 0xcd, 0xfd, 0x60, 0x3e,
  0x39, 0xcb, 0x1c, 0x3e, 0xc0, 0x11, 0xe9, 0xbd, 0xa9, 0x01, 0xe4, 0x3d,
  0x25, 0x51, 0xf3, 0x38, 0x40, 0x58, 0x97, 0x3c, 0x5a, 0x38, 0xad, 0xbd,
  0x48, 0x68, 0x20, 0xbe, 0xa2, 0x1d, 0xf2, 0xbc, 0x98, 0x91, 0x56, 0xbe,
  0xa5, 0xde, 0x80, 0xbd, 0x20, 0xfc, 0xa5, 0x3d, 0x0c, 0x4c, 0x13, 0x3e,
  0xd0, 0x13, 0x7a, 0x3e, 0x49, 0x45, 0x0d, 0x3e, 0xbc, 0x48, 0x58, 0xbe,
  0x38, 0x54, 0x98, 0xbd, 0x3c, 0x78, 0x4d, 0xbe, 0x90, 0x0e, 0x24, 0x3d,
  0x08, 0x24, 0x58, 0xbe, 0xa0, 0x3c, 0x69, 0x3e, 0x48, 0x08, 0xf1, 0x3d,
  0x28, 0x4b, 0x57, 0xbe, 0x08, 0xff, 0x1f, 0xbe, 0xb0, 0x7d, 0x12, 0x3d,
  0x60, 0xe3, 0x3c, 0xbe, 0x30, 0xf3, 0x64, 0xbe, 0xb8, 0x69, 0x40, 0x3e,
  0x00, 0x8d, 0x7f, 0x3d, 0xa0, 0x08, 0xbe, 0xbc, 0x4c, 0x10, 0x3b, 0xbe,
  0xd0, 0x15, 0x0b, 0x3e, 0x10, 0x01, 0x9f, 0xbd, 0x2c, 0xe3, 0x18, 0x3e,
  0x00, 0x96, 0x05, 0xbd, 0xb8, 0xcf, 0x6b, 0xbe, 0x20, 0x57, 0x87, 0x3c,
  0x00, 0x05, 0x1c, 0xbe, 0x80, 0xb0, 0xa6, 0xbb, 0xe8, 0x43, 0x0a, 0x3e,
  0x80, 0x70, 0x0b, 0xbc, 0xb8, 0xc2, 0x12, 0x3e, 0x00, 0x45, 0xd8, 0xbd,
  0x00, 0x4e, 0x3f, 0xbb, 0x98, 0xab, 0x42, 0xbe, 0xe0, 0x4f, 0xdc, 0xbc,
  0x4c, 0x5f, 0x61, 0xbe, 0xc0, 0x56, 0x35, 0xbd, 0xb0, 0x6f, 0xd8, 0xbd,
  0xa0, 0xe1, 0xa6, 0xbd, 0x30, 0xb3, 0x7d, 0x3d, 0xb0, 0x46, 0x7c, 0xbe,
  0x00, 0x8b, 0xad, 0xbc, 0xf0, 0xe9, 0x32, 0xbe, 0x00, 0x44, 0x5d, 0x3b,
  0x54, 0x36, 0x02, 0xbe, 0x98, 0x97, 0xb6, 0x3d, 0x88, 0xa5, 0xec, 0xbd,
  0xd8, 0xe9, 0xa7, 0xbd, 0xf0, 0xa5, 0xab, 0x3d, 0x08, 0x77, 0xe4, 0xbd,
  0x88, 0xd6, 0xbe, 0xbd, 0x78, 0x93, 0xf0, 0x3d, 0x20, 0x12, 0xd4, 0xbd,
  0x60, 0x5c, 0x12, 0x3d, 0x18, 0x50, 0x75, 0x3e, 0xc0, 0xbf, 0xc1, 0xbc,
  0x84, 0xd0, 0x16, 0xbe, 0x60, 0x44, 0x4f, 0x3e, 0xec, 0xe9, 0x2c, 0xbe,
  0x98, 0xcb, 0x03, 0xbe, 0x7c, 0x51, 0x0f, 0x3e, 0xf0, 0x7a, 0xe9, 0x3d,
  0x20, 0x42, 0x46, 0xbd, 0x38, 0x1e, 0x1b, 0x3e, 0xf4, 0x1b, 0x0f, 0x3e,
  0x40, 0x4e, 0x36, 0x3d, 0xac, 0x0d, 0x13, 0xbe, 0xac, 0x73, 0x36, 0x3e,
  0x10, 0x82, 0x7e, 0x3e, 0xaa, 0xf7, 0xff, 0xff, 0x04, 0x00, 0x00, 0x00,
  0x00, 0x06, 0x00, 0x00, 0x02, 0xde, 0x38, 0x3e, 0xb0, 0xf6, 0x1f, 0x3f,
  0x6f, 0xfb, 0xc7, 0x3a, 0xb2, 0xca, 0x55, 0xbe, 0x34, 0xce, 0x94, 0x3d,
  0x33, 0x99, 0xc6, 0xbd, 0xb8, 0x86, 0x32, 0x3d, 0x56, 0x2e, 0x3e, 0xbe,
  0xcd, 0x06, 0x79, 0xbe, 0xa4, 0xc7, 0x56, 0x3e, 0x68, 0x56, 0x4f, 0xbd,
  0xe0, 0x9f, 0x4f, 0xbc, 0xb0, 0x32, 0x3f, 0xbd, 0x3c, 0x73, 0xdc, 0x3d,
  0x61, 0xb0, 0x82, 0xbe, 0xd8, 0x27, 0x2f, 0xbd, 0x46, 0x91, 0xb0, 0xbd,
  0x48, 0xed, 0xb0, 0xbd, 0xd4, 0x00, 0x07, 0x3f, 0xb8, 0x9f, 0x90, 0x3d,
  0x10, 0x3f, 0x2d, 0x3e, 0x77, 0x2f, 0x2a, 0xbe, 0xfb, 0x79, 0x8e, 0x3e,
  0x2f, 0x2c, 0x03, 0x3e, 0x75, 0x0c, 0x9d, 0x3e, 0x4c, 0xfd, 0xc8, 0x3e,
  0x25, 0xba, 0x3e, 0xbe, 0x55, 0x8f, 0x1e, 0x3e, 0x5b, 0xc8, 0xab, 0xbd,
  0x25, 0x56, 0x3e, 0xbd, 0x94, 0xf1, 0x7a, 0x3e, 0x46, 0xd5, 0x2c, 0xbe,
  0xc5, 0x79, 0x73, 0xbe, 0x8a, 0x5b, 0x82, 0xbe, 0x80, 0x1b, 0xf6, 0x3c,
  0x1a, 0x8c, 0x8e, 0xbe, 0xd7, 0x80, 0x8b, 0xbe, 0x90, 0xe9, 0x3e, 0xbe,
  0xa8, 0x31, 0x7f, 0xbd, 0xb6, 0xce, 0x3f, 0x3e, 0xec, 0xe4, 0xf9, 0x3d,
  0xc4, 0xaa, 0x2c, 0xbe, 0x7f, 0xba, 0x03, 0xbe, 0xd8, 0x4e, 0x51, 0xbd,
  0xca, 0xc4, 0x8e, 0xbe, 0xdc, 0x2e, 0x29, 0x3e, 0xc0, 0xd2, 0xd9, 0xbc,
  0x70, 0xdd, 0x67, 0x3e, 0x6c, 0x04, 0xe0, 0xbe, 0x48, 0x88, 0x01, 0xbf,
  0x94, 0x3f, 0x18, 0x3f, 0x5e, 0x45, 0x96, 0x3e, 0xb4, 0x49, 0xbc, 0x3b,
  0x31, 0x19, 0x18, 0x3e, 0x6e, 0x3e, 0x3e, 0x3e, 0x53, 0x4f, 0x8e, 0xbe,
  0xfe, 0xdd, 0xdf, 0xbd, 0xaf, 0x01, 0x30, 0xbd, 0xa2, 0xe7, 0xac, 0x3d,
  0x28, 0xe0, 0x6c, 0x3d, 0x15, 0x7c, 0x8b, 0x3e, 0x60, 0x7e, 0x57, 0xbe,
  0x72, 0x49, 0x2d, 0x3e, 0x4e, 0x48, 0xa4, 0xbe, 0x79, 0x66, 0x78, 0xbe,
  0x15, 0xca, 0x62, 0xbe, 0x1f, 0x78, 0x81, 0xbe, 0xfa, 0xb0, 0x0f, 0x3e,
  0xa9, 0xfd, 0x12, 0xbe, 0x30, 0xe6, 0xbf, 0x3d, 0x60, 0xac, 0x2e, 0xbd,
  0x10, 0x9e, 0x6f, 0x3d, 0x06, 0x1e, 0x38, 0x3e, 0x8f, 0x42, 0x4a, 0xbe,
  0xa6, 0x10, 0x94, 0xbe, 0x31, 0xd1, 0xdb, 0x3d, 0x0b, 0x59, 0x59, 0xbe,
  0x94, 0x4f, 0x90, 0x3e, 0x41, 0x36, 0x13, 0xbe, 0x30, 0x74, 0x89, 0x3c,
  0x28, 0xe6, 0x11, 0x3e, 0x3a, 0xc8, 0x16, 0x3e, 0x65, 0x46, 0x1d, 0xbe,
  0x58, 0xe2, 0x7f, 0xbe, 0x98, 0x3e, 0x04, 0xbf, 0x38, 0x1d, 0x11, 0x3f,
  0xb3, 0x8f, 0xbc, 0x3d, 0xfb, 0x35, 0x17, 0xbe, 0xc8, 0x8c, 0x30, 0x3e,
  0x32, 0x1e, 0xb9, 0x3e, 0x3f, 0x25, 0x17, 0x3f, 0xe9, 0x23, 0xf4, 0x3e,
  0x85, 0xff, 0xbe, 0xbe, 0x85, 0xa1, 0xf7, 0x3c, 0xb8, 0xba, 0x36, 0x3d,
  0xef, 0xee, 0xfb, 0xbd, 0x59, 0x14, 0x75, 0x3e, 0x6e, 0x85, 0x3d, 0x3f,
  0x36, 0xfa, 0xd4, 0xbe, 0x27, 0xf2, 0x4e, 0x3e, 0x1a, 0xca, 0x68, 0xbd,
  0x2f, 0x1d, 0x47, 0x3e, 0x95, 0x99, 0x1c, 0x3f, 0xc1, 0xb1, 0xad, 0x3d,
  0x36, 0x51, 0x1d, 0xbe, 0xce, 0x61, 0xeb, 0xbc, 0xfc, 0x98, 0x90, 0xbd,
  0xec, 0x0b, 0xd9, 0xbd, 0xa4, 0xa3, 0x11, 0x3f, 0xe4, 0x30, 0x1d, 0x3e,
  0x43, 0xa8, 0xa2, 0x3d, 0x94, 0xfd, 0x81, 0xbd, 0x18, 0xb1, 0xe9, 0x3d,
  0x18, 0x91, 0x84, 0xbe, 0xd5, 0x6e, 0x86, 0x3d, 0xa2, 0x1e, 0x81, 0xbe,
  0x8d, 0xb7, 0x49, 0xbe, 0xf4, 0x62, 0x4f, 0x3e, 0x05, 0x0b, 0x0d, 0x3d,
  0x5b, 0x94, 0x3a, 0x3e, 0x46, 0x82, 0xcb, 0xbd, 0xca, 0x94, 0xaa, 0xbe,
  0xd5, 0x7c, 0xd2, 0x3e, 0x98, 0x06, 0x96, 0x3e, 0x3c, 0x2e, 0x7e, 0x3e,
  0xa8, 0x8b, 0x01, 0x3e, 0x80, 0x85, 0x59, 0x3e, 0xaa, 0xb2, 0x31, 0x3f,
  0x43, 0xde, 0xeb, 0xb9, 0x2f, 0x15, 0xdc, 0x3d, 0x69, 0xaa, 0x55, 0xbe,
  0xa0, 0x09, 0x3f, 0xbe, 0x7c, 0x65, 0xcf, 0x3e, 0xbd, 0xe4, 0x1e, 0xbf,
  0x29, 0x70, 0x9f, 0x3e, 0x7a, 0xb4, 0xf8, 0xbd, 0x22, 0x7f, 0x9f, 0x3e,
  0x28, 0x9b, 0x5b, 0xbe, 0x3e, 0x3d, 0x8f, 0xbe, 0x6f, 0xb8, 0x18, 0xbe,
  0xe3, 0x68, 0xea, 0x3d, 0x0a, 0x1d, 0xd1, 0x3d, 0x59, 0xbe, 0xa3, 0x3e,
  0x6f, 0x7c, 0x39, 0x3e, 0x60, 0xe5, 0x62, 0xbe, 0x88, 0x50, 0x71, 0xbd,
  0x00, 0xd2, 0x93, 0xbc, 0x7c, 0x1c, 0x4e, 0xbd, 0xc7, 0x82, 0x8c, 0xbe,
  0xd0, 0xa7, 0x93, 0xbc, 0x9a, 0xe2, 0x33, 0x3e, 0x4a, 0x55, 0xf8, 0xbd,
  0xc2, 0xd1, 0x76, 0xbe, 0xf0, 0xd6, 0x81, 0xbc, 0xa0, 0x30, 0x71, 0x3c,
  0xe0, 0x79, 0xb6, 0x3d, 0xb5, 0xe6, 0xa2, 0xbd, 0xf3, 0x90, 0x2b, 0x3f,
  0x0b, 0xb9, 0x86, 0x3d, 0xf9, 0xe3, 0x88, 0x3e, 0x27, 0x91, 0xfa, 0x3d,
  0xc5, 0x5f, 0xb5, 0x3e, 0x17, 0x31, 0x5d, 0xbe, 0xfc, 0xd1, 0x41, 0x3e,
  0xf8, 0xa2, 0x50, 0xbe, 0xe2, 0x22, 0x22, 0x3e, 0x90, 0xb9, 0x83, 0xbc,
  0x00, 0xee, 0xc2, 0x3b, 0xd8, 0x4b, 0x64, 0x3e, 0x30, 0xd2, 0xe9, 0xbd,
  0x68, 0xf5, 0x30, 0xbe, 0x10, 0x76, 0x29, 0x3d, 0xc2, 0x33, 0x8f, 0xbe,
  0xc4, 0x98, 0xe1, 0x3d, 0x0d, 0x80, 0x03, 0x3d, 0xfc, 0x26, 0x59, 0x3c,
  0x36, 0x19, 0x3d, 0xbe, 0xc0, 0x54, 0xeb, 0xbd, 0x88, 0xe8, 0xca, 0x39,
  0x63, 0xf9, 0x0f, 0x3e, 0xf6, 0xda, 0x17, 0x3f, 0x13, 0x4a, 0x1b, 0x3e,
  0x27, 0x98, 0x8f, 0xbe, 0x42, 0x47, 0x66, 0x3d, 0xc8, 0x11, 0x98, 0xbd,
  0x20, 0xfa, 0x45, 0x3e, 0x23, 0x2b, 0x05, 0xbe, 0x12, 0x16, 0x10, 0xbf,
  0xc2, 0xd8, 0x79, 0x3e, 0x58, 0xc0, 0x06, 0xbd, 0x7f, 0xd1, 0x1b, 0x3e,
  0x20, 0xbd, 0x42, 0x3e, 0x49, 0x35, 0x64, 0xbe, 0x3a, 0x22, 0x1a, 0xbf,
  0xf3, 0xac, 0xe5, 0x3e, 0x70, 0x1e, 0xfd, 0x3d, 0x10, 0x16, 0x91, 0x3e,
  0xad, 0x25, 0x32, 0x3d, 0x38, 0x81, 0x05, 0x3f, 0x2b, 0x48, 0x0c, 0x3e,
  0x97, 0x30, 0x89, 0xbe, 0xfd, 0xbd, 0xa4, 0x3c, 0x17, 0x11, 0xaa, 0x3e,
  0x74, 0x55, 0x8e, 0x3e, 0xc3, 0xdd, 0xe1, 0x3d, 0xca, 0x41, 0x0f, 0x3f,
  0x3f, 0x80, 0xb2, 0xbc, 0x58, 0xb4, 0x02, 0x3f, 0xc5, 0x04, 0xdb, 0xbd,
  0x5e, 0x82, 0xf2, 0x3d, 0xa5, 0x65, 0x68, 0x3e, 0xb7, 0x93, 0x0e, 0xbf,
  0x21, 0xba, 0x0a, 0x3f, 0xca, 0xbd, 0x8f, 0x3e, 0xbb, 0xba, 0x06, 0xbe,
  0xe7, 0x6b, 0x09, 0xbe, 0xd4, 0x0c, 0x3a, 0x3f, 0x4f, 0x7d, 0xff, 0xbd,
  0x18, 0x9e, 0x3e, 0xbe, 0x32, 0x09, 0x9f, 0x3d, 0x82, 0x40, 0x90, 0x3e,
  0x91, 0x09, 0x1b, 0x3e, 0xef, 0x02, 0xca, 0x3e, 0xbf, 0x1c, 0x95, 0x3e,
  0xbd, 0x11, 0xac, 0xbd, 0x64, 0x57, 0x76, 0xbc, 0xb0, 0x88, 0x1e, 0xbe,
  0x63, 0x38, 0xc7, 0x3d, 0x47, 0x1d, 0x83, 0xbe, 0x5f, 0x93, 0x69, 0x3e,
  0x7b, 0x50, 0x3c, 0x3e, 0x57, 0x00, 0xc8, 0xbd, 0x2e, 0xc6, 0x24, 0xbe,
  0xa3, 0xf0, 0x80, 0xbe, 0xe1, 0x23, 0xd9, 0xbe, 0x50, 0xfd, 0x66, 0x3f,
  0x87, 0xc7, 0x11, 0xbe, 0x3b, 0x7f, 0xe8, 0x3c, 0x1e, 0x5a, 0x30, 0x3e,
  0x5c, 0xdd, 0xe0, 0xb9, 0xe2, 0xc7, 0x38, 0xbf, 0x9a, 0x53, 0xab, 0x3e,
  0x57, 0xb4, 0xa7, 0x3e, 0xa6, 0x20, 0xe2, 0x3d, 0x6a, 0x6f, 0x72, 0xbd,
  0x35, 0x29, 0x53, 0x3e, 0xc5, 0x8a, 0x3e, 0x3f, 0xbf, 0x00, 0x05, 0xbf,
  0x75, 0xc6, 0x80, 0x3e, 0x6b, 0xbd, 0xf6, 0xbb, 0x14, 0x63, 0x11, 0xbe,
  0x54, 0x0f, 0x9b, 0x3c, 0x50, 0x4f, 0x23, 0x3f, 0x46, 0xfe, 0x3c, 0x3e,
  0x07, 0xe0, 0xa9, 0xbe, 0xd4, 0x50, 0x35, 0xbe, 0x1f, 0xef, 0x08, 0x3e,
  0xdb, 0x71, 0x1d, 0x3e, 0x9a, 0xb6, 0x58, 0xbe, 0xb8, 0xf0, 0x00, 0x3d,
  0xd8, 0xe2, 0x2b, 0xbe, 0x71, 0xee, 0x1f, 0xbe, 0x1c, 0x49, 0xe8, 0x3d,
  0x14, 0x23, 0x3c, 0xbd, 0xbb, 0x1e, 0x2c, 0x3f, 0x87, 0xa1, 0xab, 0xbe,
  0xda, 0x15, 0xbe, 0x3e, 0xcf, 0x9f, 0x3b, 0x3e, 0xa5, 0x13, 0xb9, 0x3e,
  0xcf, 0xaa, 0x9d, 0x3e, 0xf0, 0x6f, 0x8c, 0xbd, 0xdf, 0xeb, 0x36, 0xbe,
  0x38, 0xba, 0xdd, 0xbd, 0x28, 0xff, 0xce, 0xbd, 0x97, 0x7d, 0x8f, 0xbe,
  0x30, 0xd4, 0x83, 0x3d, 0x53, 0x9f, 0x52, 0x3f, 0xcd, 0x35, 0x22, 0xbe,
  0x31, 0x2b, 0x9c, 0xbe, 0xc9, 0x2d, 0x7e, 0x3e, 0x5d, 0xa8, 0xe3, 0x3d,
  0x8c, 0x6b, 0xaf, 0xbd, 0xcd, 0x74, 0xff, 0x3d, 0x98, 0x7e, 0x5f, 0xbe,
  0xa2, 0x52, 0x3a, 0xbe, 0xf8, 0x97, 0x83, 0x3e, 0xd0, 0x11, 0xb0, 0xbc,
  0xaf, 0xbc, 0x4a, 0x3d, 0x4b, 0x2f, 0xb3, 0xbd, 0x55, 0xe3, 0x4a, 0x3e,
  0x0b, 0x4b, 0x84, 0xbe, 0x98, 0x8e, 0x85, 0x3e, 0xfe, 0x85, 0xb3, 0x3c,
  0x68, 0xd5, 0x00, 0xbe, 0x1b, 0xfd, 0x75, 0xbc, 0xab, 0xbc, 0x3c, 0x3f,
  0x39, 0x41, 0xf2, 0xbd, 0xbb, 0x65, 0xae, 0x3d, 0x1d, 0x49, 0x66, 0x3e,
  0x6e, 0xba, 0x17, 0x3e, 0xcc, 0x8e, 0x0d, 0x3e, 0xa3, 0xea, 0x29, 0xbe,
  0xb0, 0xd5, 0x4a, 0x3d, 0x6c, 0x70, 0x69, 0xbe, 0x66, 0x1b, 0x78, 0xbe,
  0x2a, 0x9b, 0x7b, 0xbe, 0xd0, 0xbf, 0x93, 0xbd, 0x20, 0xbc, 0x93, 0xbc,
  0x23, 0xf7, 0x04, 0x3f, 0x61, 0xb0, 0xb9, 0x3e, 0xe6, 0xb6, 0x9a, 0xbe,
  0x7d, 0xd3, 0x8f, 0x3e, 0x94, 0xb2, 0x15, 0xbf, 0xec, 0xa1, 0x0b, 0x3f,
  0x89, 0x97, 0x15, 0x3e, 0x6a, 0x66, 0x49, 0x3e, 0x7d, 0xc0, 0xa1, 0x3e,
  0x5f, 0x49, 0xd2, 0xbd, 0x30, 0xe9, 0x91, 0x3c, 0xc2, 0x1b, 0x37, 0xbe,
  0xb0, 0x8a, 0x62, 0xbe, 0x02, 0x5d, 0x35, 0xbe, 0xa8, 0xfb, 0x7f, 0x3d,
  0x34, 0x61, 0x5a, 0x3e, 0x1b, 0xe5, 0x20, 0x3e, 0xc4, 0x81, 0x37, 0xbe,
  0xc7, 0x62, 0x94, 0x3d, 0x27, 0x8e, 0x77, 0xbe, 0x4b, 0x78, 0x04, 0xbe,
  0x6f, 0xaf, 0x6b, 0xbe, 0xa0, 0x47, 0xba, 0xbd, 0x08, 0xac, 0x90, 0xbd,
  0xe0, 0x26, 0x13, 0x3d, 0x87, 0x0f, 0x28, 0xbe, 0x82, 0xf1, 0x00, 0xbe,
  0xa2, 0x5a, 0xd8, 0xbd, 0x33, 0x70, 0x21, 0xbf, 0x73, 0x84, 0xf4, 0x3e,
  0x6b, 0x7a, 0x9d, 0x3e, 0x77, 0xcd, 0xd7, 0xbd, 0x63, 0xff, 0x1c, 0x3e,
  0x8f, 0x92, 0x51, 0xbe, 0x40, 0x34, 0xb4, 0xbb, 0x80, 0xcd, 0x4a, 0xbb,
  0x6b, 0x0e, 0x90, 0xbe, 0x44, 0x2b, 0x7d, 0x3e, 0xb4, 0x02, 0x90, 0xbd,
  0x34, 0x54, 0x49, 0xbe, 0x44, 0x63, 0x36, 0x3f, 0x26, 0xb5, 0x9c, 0xbe,
  0xdd, 0xbf, 0x3d, 0x3d, 0xd3, 0x8d, 0xbe, 0x3d, 0x1d, 0x9b, 0xa7, 0x3c,
  0x37, 0x0d, 0x8c, 0xbd, 0x75, 0xd1, 0x31, 0xbe, 0x40, 0x8b, 0x05, 0x3e,
  0xdd, 0x29, 0x5b, 0xbe, 0x24, 0x8b, 0x92, 0xbe, 0xf8, 0x83, 0x4b, 0xbd,
  0x94, 0xea, 0xc7, 0xbd, 0x64, 0xe9, 0xb1, 0xbd, 0x64, 0x9b, 0x1d, 0x3e,
  0x02, 0xb4, 0x10, 0xbe, 0xde, 0x6c, 0x0e, 0x3e, 0xed, 0x61, 0x00, 0xbe,
  0xee, 0xac, 0xaa, 0xbd, 0xef, 0x2c, 0xe9, 0x3e, 0x86, 0x76, 0x82, 0xbe,
  0x67, 0x44, 0xaa, 0xbe, 0xf9, 0x17, 0xf5, 0x3d, 0x31, 0xc6, 0xc9, 0x3e,
  0x7d, 0xa1, 0x8e, 0x3e, 0x41, 0x96, 0xb2, 0xbd, 0xad, 0xaf, 0x30, 0x3f,
  0x11, 0x0a, 0x8e, 0xbe, 0x57, 0xdf, 0x99, 0x3e, 0xc5, 0x8b, 0xa1, 0x3e,
  0x63, 0x77, 0x04, 0xbe, 0xce, 0xb2, 0x6b, 0xbe, 0x88, 0x1d, 0x2a, 0xbd,
  0xbc, 0x03, 0xf6, 0xbd, 0x40, 0xc8, 0x85, 0x3e, 0xf0, 0x0e, 0x69, 0x3d,
  0xc3, 0xa3, 0x10, 0xbe, 0xb6, 0xfd, 0xff, 0xff, 0x04, 0x00, 0x00, 0x00,
  0x00, 0x01, 0x00, 0x00, 0x61, 0x5d, 0x56, 0xbe, 0x00, 0x00, 0x00, 0x00,
  0x00, 0x00, 0x00, 0x00, 0x15, 0xa6, 0x5a, 0xbd, 0x11, 0x3a, 0xfc, 0xbd,
  0x00, 0x00, 0x00, 0x00, 0x00, 0x00, 0x00, 0x00, 0x00, 0x00, 0x00, 0x00,
  0x3d, 0x7e, 0xa1, 0x3e, 0x28, 0x5b, 0x00, 0xbc, 0x44, 0x1a, 0xbf, 0x3c,
  0x00, 0x00, 0x00, 0x00, 0x87, 0x05, 0x4f, 0xbb, 0x00, 0x00, 0x00, 0x00,
  0x6c, 0x32, 0x41, 0x3e, 0x07, 0x6d, 0x5d, 0xbe, 0xc4, 0xab, 0x15, 0xbe,
  0x84, 0x33, 0xd3, 0xbd, 0xd4, 0xd3, 0x54, 0xbe, 0xa4, 0xb7, 0x5d, 0xbc,
  0x7f, 0xe7, 0x69, 0x3e, 0x8b, 0xd4, 0x17, 0xbe, 0x3a, 0x2d, 0xd3, 0x3d,
  0xe6, 0x2a, 0x87, 0x3e, 0x00, 0x00, 0x00, 0x00, 0x00, 0x00, 0x00, 0x00,
  0x28, 0xa3, 0x6a, 0xbd, 0x00, 0x00, 0x00, 0x00, 0x00, 0x00, 0x00, 0x00,
  0x1d, 0x55, 0x15, 0xbc, 0x38, 0xa3, 0x2c, 0xbe, 0x45, 0x15, 0x90, 0x3e,
  0x22, 0xac, 0x44, 0x3e, 0x40, 0x09, 0x04, 0xbe, 0x2b, 0xe6, 0xd8, 0xbc,
  0x90, 0xb3, 0xa6, 0x3e, 0xd0, 0xae, 0xcf, 0xbd, 0x0c, 0x66, 0x56, 0xbe,
  0x39, 0xa4, 0x1a, 0xbc, 0xed, 0x42, 0x54, 0xbd, 0x64, 0x64, 0x65, 0x3e,
  0x96, 0xd6, 0x56, 0x3e, 0x01, 0x38, 0x47, 0xbe, 0x00, 0x00, 0x00, 0x00,
  0xeb, 0xfd, 0x0a, 0x3e, 0x00, 0x00, 0x00, 0x00, 0x36, 0x0f, 0xc5, 0xbd,
  0x1a, 0x91, 0xc7, 0x3b, 0xec, 0x01, 0xf9, 0xbb, 0x73, 0x77, 0xdf, 0xbd,
  0x00, 0x00, 0x00, 0x00, 0xac, 0x0f, 0x75, 0x3e, 0x36, 0x1b, 0x4a, 0x3e,
  0x00, 0x00, 0x00, 0x00, 0x43, 0x67, 0x17, 0xbc, 0x00, 0x00, 0x00, 0x00,
  0xa7, 0xa7, 0x4a, 0x3e, 0x00, 0x00, 0x00, 0x00, 0x07, 0x16, 0xd6, 0xbd,
  0x00, 0x00, 0x00, 0x00, 0x00, 0x00, 0x00, 0x00, 0xab, 0x89, 0x8f, 0xbd,
  0xd6, 0x51, 0xb1, 0xbd, 0x00, 0x00, 0x00, 0x00, 0xc2, 0xfe, 0xff, 0xff,
  0x04, 0x00, 0x00, 0x00, 0x80, 0x00, 0x00, 0x00, 0xbf, 0xd9, 0x46, 0x3e,
  0xe1, 0xc9, 0x86, 0x3e, 0xfe, 0x0a, 0x5c, 0x3e, 0x00, 0x00, 0x00, 0x00,
  0x6f, 0x27, 0xec, 0xbd, 0xd6, 0x4b, 0xf1, 0xbd, 0x73, 0x4e, 0xf1, 0xbd,
  0x0e, 0x10, 0xcd, 0xbd, 0x30, 0xd7, 0x4d, 0xbd, 0xf7, 0xa9, 0xcb, 0x3d,
  0x21, 0xf9, 0x95, 0xbd, 0x00, 0x00, 0x00, 0x00, 0x5a, 0xdf, 0x3b, 0x3e,
  0x00, 0x00, 0x00, 0x00, 0x38, 0xe2, 0xfd, 0x3b, 0x75, 0xe3, 0xdc, 0xbc,
  0x19, 0xa6, 0x8b, 0xbc, 0x02, 0x2f, 0x4f, 0xbb, 0xb4, 0x80, 0x87, 0x3d,
  0x57, 0xef, 0xae, 0x3c, 0x3d, 0x5d, 0x8a, 0xbd, 0x7d, 0xe5, 0x4c, 0xbb,
  0xd5, 0x2b, 0x1a, 0x3e, 0x7c, 0xc0, 0xc9, 0xbc, 0xc0, 0x9d, 0x5c, 0x3e,
  0x00, 0x00, 0x00, 0x00, 0x00, 0x00, 0x00, 0x00, 0x73, 0x97, 0x03, 0x3e,
  0x55, 0x27, 0xa3, 0x3e, 0x00, 0x00, 0x00, 0x00, 0x7b, 0xfd, 0xac, 0xbd,
  0x00, 0x00, 0x00, 0x00, 0x4e, 0xff, 0xff, 0xff, 0x04, 0x00, 0x00, 0x00,
  0x10, 0x00, 0x00, 0x00, 0xd6, 0xfa, 0xac, 0xbd, 0x47, 0x76, 0x5b, 0x3d,
  0xf3, 0x6a, 0x8e, 0xbe, 0x68, 0xad, 0x48, 0xbd, 0x20, 0xfa, 0xff, 0xff,
  0x24, 0xfa, 0xff, 0xff, 0x0f, 0x00, 0x00, 0x00, 0x4d, 0x4c, 0x49, 0x52,
  0x20, 0x43, 0x6f, 0x6e, 0x76, 0x65, 0x72, 0x74, 0x65, 0x64, 0x2e, 0x00,
  0x01, 0x00, 0x00, 0x00, 0x14, 0x00, 0x00, 0x00, 0x00, 0x00, 0x0e, 0x00,
  0x18, 0x00, 0x14, 0x00, 0x10, 0x00, 0x0c, 0x00, 0x08, 0x00, 0x04, 0x00,
  0x0e, 0x00, 0x00, 0x00, 0x14, 0x00, 0x00, 0x00, 0x1c, 0x00, 0x00, 0x00,
  0x24, 0x01, 0x00, 0x00, 0x28, 0x01, 0x00, 0x00, 0x2c, 0x01, 0x00, 0x00,
  0x04, 0x00, 0x00, 0x00, 0x6d, 0x61, 0x69, 0x6e, 0x00, 0x00, 0x00, 0x00,
  0x04, 0x00, 0x00, 0x00, 0xcc, 0x00, 0x00, 0x00, 0x84, 0x00, 0x00, 0x00,
  0x50, 0x00, 0x00, 0x00, 0x14, 0x00, 0x00, 0x00, 0x00, 0x00, 0x0e, 0x00,
  0x1a, 0x00, 0x14, 0x00, 0x10, 0x00, 0x0c, 0x00, 0x0b, 0x00, 0x04, 0x00,
  0x0e, 0x00, 0x00, 0x00, 0x1c, 0x00, 0x00, 0x00, 0x00, 0x00, 0x00, 0x09,
  0x1c, 0x00, 0x00, 0x00, 0x20, 0x00, 0x00, 0x00, 0x01, 0x00, 0x00, 0x00,
  0x00, 0x00, 0x06, 0x00, 0x08, 0x00, 0x04, 0x00, 0x06, 0x00, 0x00, 0x00,
  0x00, 0x00, 0x80, 0x3f, 0x01, 0x00, 0x00, 0x00, 0x0a, 0x00, 0x00, 0x00,
  0x01, 0x00, 0x00, 0x00, 0x09, 0x00, 0x00, 0x00, 0x9a, 0xff, 0xff, 0xff,
  0x10, 0x00, 0x00, 0x00, 0x00, 0x00, 0x00, 0x08, 0x0c, 0x00, 0x00, 0x00,
  0x10, 0x00, 0x00, 0x00, 0xe8, 0xfa, 0xff, 0xff, 0x01, 0x00, 0x00, 0x00,
  0x09, 0x00, 0x00, 0x00, 0x03, 0x00, 0x00, 0x00, 0x08, 0x00, 0x00, 0x00,
  0x06, 0x00, 0x00, 0x00, 0x01, 0x00, 0x00, 0x00, 0xca, 0xff, 0xff, 0xff,
  0x10, 0x00, 0x00, 0x00, 0x00, 0x00, 0x00, 0x08, 0x10, 0x00, 0x00, 0x00,
  0x14, 0x00, 0x00, 0x00, 0xba, 0xff, 0xff, 0xff, 0x00, 0x00, 0x00, 0x01,
  0x01, 0x00, 0x00, 0x00, 0x08, 0x00, 0x00, 0x00, 0x03, 0x00, 0x00, 0x00,
  0x07, 0x00, 0x00, 0x00, 0x05, 0x00, 0x00, 0x00, 0x02, 0x00, 0x00, 0x00,
  0x00, 0x00, 0x0e, 0x00, 0x16, 0x00, 0x00, 0x00, 0x10, 0x00, 0x0c, 0x00,
  0x0b, 0x00, 0x04, 0x00, 0x0e, 0x00, 0x00, 0x00, 0x18, 0x00, 0x00, 0x00,
  0x00, 0x00, 0x00, 0x08, 0x18, 0x00, 0x00, 0x00, 0x1c, 0x00, 0x00, 0x00,
  0x00, 0x00, 0x06, 0x00, 0x08, 0x00, 0x07, 0x00, 0x06, 0x00, 0x00, 0x00,
  0x00, 0x00, 0x00, 0x01, 0x01, 0x00, 0x00, 0x00, 0x07, 0x00, 0x00, 0x00,
  0x03, 0x00, 0x00, 0x00, 0x00, 0x00, 0x00, 0x00, 0x04, 0x00, 0x00, 0x00,
  0x03, 0x00, 0x00, 0x00, 0x01, 0x00, 0x00, 0x00, 0x0a, 0x00, 0x00, 0x00,
  0x01, 0x00, 0x00, 0x00, 0x00, 0x00, 0x00, 0x00, 0x0b, 0x00, 0x00, 0x00,
  0x40, 0x04, 0x00, 0x00, 0xcc, 0x03, 0x00, 0x00, 0x58, 0x03, 0x00, 0x00,
  0xfc, 0x02, 0x00, 0x00, 0xac, 0x02, 0x00, 0x00, 0x5c, 0x02, 0x00, 0x00,
  0x0c, 0x02, 0x00, 0x00, 0x74, 0x01, 0x00, 0x00, 0xdc, 0x00, 0x00, 0x00,
  0x60, 0x00, 0x00, 0x00, 0x04, 0x00, 0x00, 0x00, 0x02, 0xfc, 0xff, 0xff,
  0x00, 0x00, 0x00, 0x01, 0x14, 0x00, 0x00, 0x00, 0x1c, 0x00, 0x00, 0x00,
  0x1c, 0x00, 0x00, 0x00, 0x0b, 0x00, 0x00, 0x00, 0x34, 0x00, 0x00, 0x00,
  0x02, 0x00, 0x00, 0x00, 0xff, 0xff, 0xff, 0xff, 0x04, 0x00, 0x00, 0x00,
  0xec, 0xfb, 0xff, 0xff, 0x19, 0x00, 0x00, 0x00, 0x53, 0x74, 0x61, 0x74,
  0x65, 0x66, 0x75, 0x6c, 0x50, 0x61, 0x72, 0x74, 0x69, 0x74, 0x69, 0x6f,
  0x6e, 0x65, 0x64, 0x43, 0x61, 0x6c, 0x6c, 0x3a, 0x30, 0x00, 0x00, 0x00,
  0x02, 0x00, 0x00, 0x00, 0x01, 0x00, 0x00, 0x00, 0x04, 0x00, 0x00, 0x00,
  0x5a, 0xfc, 0xff, 0xff, 0x00, 0x00, 0x00, 0x01, 0x14, 0x00, 0x00, 0x00,
  0x1c, 0x00, 0x00, 0x00, 0x1c, 0x00, 0x00, 0x00, 0x0a, 0x00, 0x00, 0x00,
  0x54, 0x00, 0x00, 0x00, 0x02, 0x00, 0x00, 0x00, 0xff, 0xff, 0xff, 0xff,
  0x04, 0x00, 0x00, 0x00, 0x44, 0xfc, 0xff, 0xff, 0x3a, 0x00, 0x00, 0x00,
  0x73, 0x65, 0x71, 0x75, 0x65, 0x6e, 0x74, 0x69, 0x61, 0x6c, 0x5f, 0x39,
  0x2f, 0x64, 0x65, 0x6e, 0x73, 0x65, 0x5f, 0x33, 0x31, 0x2f, 0x4d, 0x61,
  0x74, 0x4d, 0x75, 0x6c, 0x3b, 0x73, 0x65, 0x71, 0x75, 0x65, 0x6e, 0x74,
  0x69, 0x61, 0x6c, 0x5f, 0x39, 0x2f, 0x64, 0x65, 0x6e, 0x73, 0x65, 0x5f,
  0x33, 0x31, 0x2f, 0x42, 0x69, 0x61, 0x73, 0x41, 0x64, 0x64, 0x00, 0x00,
  0x02, 0x00, 0x00, 0x00, 0x01, 0x00, 0x00, 0x00, 0x04, 0x00, 0x00, 0x00,
  0xd2, 0xfc, 0xff, 0xff, 0x00, 0x00, 0x00, 0x01, 0x14, 0x00, 0x00, 0x00,
  0x1c, 0x00, 0x00, 0x00, 0x1c, 0x00, 0x00, 0x00, 0x09, 0x00, 0x00, 0x00,
  0x70, 0x00, 0x00, 0x00, 0x02, 0x00, 0x00, 0x00, 0xff, 0xff, 0xff, 0xff,
  0x20, 0x00, 0x00, 0x00, 0xbc, 0xfc, 0xff, 0xff, 0x55, 0x00, 0x00, 0x00,
  0x73, 0x65, 0x71, 0x75, 0x65, 0x6e, 0x74, 0x69, 0x61, 0x6c, 0x5f, 0x39,
  0x2f, 0x64, 0x65, 0x6e, 0x73, 0x65, 0x5f, 0x33, 0x30, 0x2f, 0x4d, 0x61,
  0x74, 0x4d, 0x75, 0x6c, 0x3b, 0x73, 0x65, 0x71, 0x75, 0x65, 0x6e, 0x74,
  0x69, 0x61, 0x6c, 0x5f, 0x39, 0x2f, 0x64, 0x65, 0x6e, 0x73, 0x65, 0x5f,
  0x33, 0x30, 0x2f, 0x52, 0x65, 0x6c, 0x75, 0x3b, 0x73, 0x65, 0x71, 0x75,
  0x65, 0x6e, 0x74, 0x69, 0x61, 0x6c, 0x5f, 0x39, 0x2f, 0x64, 0x65, 0x6e,
  0x73, 0x65, 0x5f, 0x33, 0x30, 0x2f, 0x42, 0x69, 0x61, 0x73, 0x41, 0x64,
  0x64, 0x00, 0x00, 0x00, 0x02, 0x00, 0x00, 0x00, 0x01, 0x00, 0x00, 0x00,
  0x20, 0x00, 0x00, 0x00, 0x66, 0xfd, 0xff, 0xff, 0x00, 0x00, 0x00, 0x01,
  0x14, 0x00, 0x00, 0x00, 0x1c, 0x00, 0x00, 0x00, 0x1c, 0x00, 0x00, 0x00,
  0x08, 0x00, 0x00, 0x00, 0x70, 0x00, 0x00, 0x00, 0x02, 0x00, 0x00, 0x00,
  0xff, 0xff, 0xff, 0xff, 0x40, 0x00, 0x00, 0x00, 0x50, 0xfd, 0xff, 0xff,
  0x55, 0x00, 0x00, 0x00, 0x73, 0x65, 0x71, 0x75, 0x65, 0x6e, 0x74, 0x69,
  0x61, 0x6c, 0x5f, 0x39, 0x2f, 0x64, 0x65, 0x6e, 0x73, 0x65, 0x5f, 0x32,
  0x39, 0x2f, 0x4d, 0x61, 0x74, 0x4d, 0x75, 0x6c, 0x3b, 0x73, 0x65, 0x71,
  0x75, 0x65, 0x6e, 0x74, 0x69, 0x61, 0x6c, 0x5f, 0x39, 0x2f, 0x64, 0x65,
  0x6e, 0x73, 0x65, 0x5f, 0x32, 0x39, 0x2f, 0x52, 0x65, 0x6c, 0x75, 0x3b,
  0x73, 0x65, 0x71, 0x75, 0x65, 0x6e, 0x74, 0x69, 0x61, 0x6c, 0x5f, 0x39,
  0x2f, 0x64, 0x65, 0x6e, 0x73, 0x65, 0x5f, 0x32, 0x39, 0x2f, 0x42, 0x69,
  0x61, 0x73, 0x41, 0x64, 0x64, 0x00, 0x00, 0x00, 0x02, 0x00, 0x00, 0x00,
  0x01, 0x00, 0x00, 0x00, 0x40, 0x00, 0x00, 0x00, 0x6a, 0xfe, 0xff, 0xff,
  0x00, 0x00, 0x00, 0x01, 0x10, 0x00, 0x00, 0x00, 0x10, 0x00, 0x00, 0x00,
  0x07, 0x00, 0x00, 0x00, 0x2c, 0x00, 0x00, 0x00, 0xd4, 0xfd, 0xff, 0xff,
  0x1c, 0x00, 0x00, 0x00, 0x73, 0x65, 0x71, 0x75, 0x65, 0x6e, 0x74, 0x69,
  0x61, 0x6c, 0x5f, 0x39, 0x2f, 0x64, 0x65, 0x6e, 0x73, 0x65, 0x5f, 0x33,
  0x31, 0x2f, 0x4d, 0x61, 0x74, 0x4d, 0x75, 0x6c, 0x00, 0x00, 0x00, 0x00,
  0x02, 0x00, 0x00, 0x00, 0x04, 0x00, 0x00, 0x00, 0x20, 0x00, 0x00, 0x00,
  0xb6, 0xfe, 0xff, 0xff, 0x00, 0x00, 0x00, 0x01, 0x10, 0x00, 0x00, 0x00,
  0x10, 0x00, 0x00, 0x00, 0x06, 0x00, 0x00, 0x00, 0x2c, 0x00, 0x00, 0x00,
  0x20, 0xfe, 0xff, 0xff, 0x1c, 0x00, 0x00, 0x00, 0x73, 0x65, 0x71, 0x75,
  0x65, 0x6e, 0x74, 0x69, 0x61, 0x6c, 0x5f, 0x39, 0x2f, 0x64, 0x65, 0x6e,
  0x73, 0x65, 0x5f, 0x33, 0x30, 0x2f, 0x4d, 0x61, 0x74, 0x4d, 0x75, 0x6c,
  0x00, 0x00, 0x00, 0x00, 0x02, 0x00, 0x00, 0x00, 0x20, 0x00, 0x00, 0x00,
  0x40, 0x00, 0x00, 0x00, 0x02, 0xff, 0xff, 0xff, 0x00, 0x00, 0x00, 0x01,
  0x10, 0x00, 0x00, 0x00, 0x10, 0x00, 0x00, 0x00, 0x05, 0x00, 0x00, 0x00,
  0x2c, 0x00, 0x00, 0x00, 0x6c, 0xfe, 0xff, 0xff, 0x1c, 0x00, 0x00, 0x00,
  0x73, 0x65, 0x71, 0x75, 0x65, 0x6e, 0x74, 0x69, 0x61, 0x6c, 0x5f, 0x39,
  0x2f, 0x64, 0x65, 0x6e, 0x73, 0x65, 0x5f, 0x32, 0x39, 0x2f, 0x4d, 0x61,
  0x74, 0x4d, 0x75, 0x6c, 0x00, 0x00, 0x00, 0x00, 0x02, 0x00, 0x00, 0x00,
  0x40, 0x00, 0x00, 0x00, 0x06, 0x00, 0x00, 0x00, 0x4e, 0xff, 0xff, 0xff,
  0x00, 0x00, 0x00, 0x01, 0x10, 0x00, 0x00, 0x00, 0x10, 0x00, 0x00, 0x00,
  0x04, 0x00, 0x00, 0x00, 0x3c, 0x00, 0x00, 0x00, 0xb8, 0xfe, 0xff, 0xff,
  0x2c, 0x00, 0x00, 0x00, 0x73, 0x65, 0x71, 0x75, 0x65, 0x6e, 0x74, 0x69,
  0x61, 0x6c, 0x5f, 0x39, 0x2f, 0x64, 0x65, 0x6e, 0x73, 0x65, 0x5f, 0x32,
  0x39, 0x2f, 0x42, 0x69, 0x61, 0x73, 0x41, 0x64, 0x64, 0x2f, 0x52, 0x65,
  0x61, 0x64, 0x56, 0x61, 0x72, 0x69, 0x61, 0x62, 0x6c, 0x65, 0x4f, 0x70,
  0x00, 0x00, 0x00, 0x00, 0x01, 0x00, 0x00, 0x00, 0x40, 0x00, 0x00, 0x00,
  0xa6, 0xff, 0xff, 0xff, 0x00, 0x00, 0x00, 0x01, 0x10, 0x00, 0x00, 0x00,
  0x10, 0x00, 0x00, 0x00, 0x03, 0x00, 0x00, 0x00, 0x3c, 0x00, 0x00, 0x00,
  0x10, 0xff, 0xff, 0xff, 0x2c, 0x00, 0x00, 0x00, 0x73, 0x65, 0x71, 0x75,
  0x65, 0x6e, 0x74, 0x69, 0x61, 0x6c, 0x5f, 0x39, 0x2f, 0x64, 0x65, 0x6e,
  0x73, 0x65, 0x5f, 0x33, 0x30, 0x2f, 0x42, 0x69, 0x61, 0x73, 0x41, 0x64,
  0x64, 0x2f, 0x52, 0x65, 0x61, 0x64, 0x56, 0x61, 0x72, 0x69, 0x61, 0x62,
  0x6c, 0x65, 0x4f, 0x70, 0x00, 0x00, 0x00, 0x00, 0x01, 0x00, 0x00, 0x00,
  0x20, 0x00, 0x00, 0x00, 0x00, 0x00, 0x16, 0x00, 0x18, 0x00, 0x14, 0x00,
  0x00, 0x00, 0x10, 0x00, 0x0c, 0x00, 0x08, 0x00, 0x00, 0x00, 0x00, 0x00,
  0x00, 0x00, 0x07, 0x00, 0x16, 0x00, 0x00, 0x00, 0x00, 0x00, 0x00, 0x01,
  0x10, 0x00, 0x00, 0x00, 0x10, 0x00, 0x00, 0x00, 0x02, 0x00, 0x00, 0x00,
  0x3c, 0x00, 0x00, 0x00, 0x80, 0xff, 0xff, 0xff, 0x2c, 0x00, 0x00, 0x00,
  0x73, 0x65, 0x71, 0x75, 0x65, 0x6e, 0x74, 0x69, 0x61, 0x6c, 0x5f, 0x39,
  0x2f, 0x64, 0x65, 0x6e, 0x73, 0x65, 0x5f, 0x33, 0x31, 0x2f, 0x42, 0x69,
  0x61, 0x73, 0x41, 0x64, 0x64, 0x2f, 0x52, 0x65, 0x61, 0x64, 0x56, 0x61,
  0x72, 0x69, 0x61, 0x62, 0x6c, 0x65, 0x4f, 0x70, 0x00, 0x00, 0x00, 0x00,
  0x01, 0x00, 0x00, 0x00, 0x04, 0x00, 0x00, 0x00, 0x00, 0x00, 0x16, 0x00,
  0x1c, 0x00, 0x18, 0x00, 0x00, 0x00, 0x14, 0x00, 0x10, 0x00, 0x0c, 0x00,
  0x00, 0x00, 0x00, 0x00, 0x08, 0x00, 0x07, 0x00, 0x16, 0x00, 0x00, 0x00,
  0x00, 0x00, 0x00, 0x01, 0x14, 0x00, 0x00, 0x00, 0x20, 0x00, 0x00, 0x00,
  0x20, 0x00, 0x00, 0x00, 0x01, 0x00, 0x00, 0x00, 0x40, 0x00, 0x00, 0x00,
  0x02, 0x00, 0x00, 0x00, 0xff, 0xff, 0xff, 0xff, 0x06, 0x00, 0x00, 0x00,
  0x04, 0x00, 0x04, 0x00, 0x04, 0x00, 0x00, 0x00, 0x20, 0x00, 0x00, 0x00,
  0x73, 0x65, 0x72, 0x76, 0x69, 0x6e, 0x67, 0x5f, 0x64, 0x65, 0x66, 0x61,
  0x75, 0x6c, 0x74, 0x5f, 0x64, 0x65, 0x6e, 0x73, 0x65, 0x5f, 0x32, 0x39,
  0x5f, 0x69, 0x6e, 0x70, 0x75, 0x74, 0x3a, 0x30, 0x00, 0x00, 0x00, 0x00,
  0x02, 0x00, 0x00, 0x00, 0x01, 0x00, 0x00, 0x00, 0x06, 0x00, 0x00, 0x00,
  0x02, 0x00, 0x00, 0x00, 0x20, 0x00, 0x00, 0x00, 0x04, 0x00, 0x00, 0x00,
  0xf4, 0xff, 0xff, 0xff, 0x19, 0x00, 0x00, 0x00, 0x00, 0x00, 0x00, 0x19,
  0x0c, 0x00, 0x0c, 0x00, 0x0b, 0x00, 0x00, 0x00, 0x00, 0x00, 0x04, 0x00,
  0x0c, 0x00, 0x00, 0x00, 0x09, 0x00, 0x00, 0x00, 0x00, 0x00, 0x00, 0x09
};
